[PAD]
[UNK]
[CLS]
[SEP]
[MASK]
!
"
#
$
%
&
'
(
)
*
+
,
-
.
/
0
1
2
3
4
5
6
7
8
9
:
;
<
=
>
?
@
[
\
]
^
_
`
a
b
c
d
e
f
g
h
i
j
k
l
m
n
o
p
q
r
s
t
u
v
w
x
y
z
{
}
~
¡
¢
£
¤
¥
¦
§
¨
©
ª
«
¬
®
¯
°
±
²
³
´
µ
¶
·
¸
¹
º
»
¼
½
¾
¿
×
ß
æ
ð
÷
ø
þ
đ
ħ
ı
ĳ
ĸ
ŀ
ł
ŉ
ŋ
œ
ŧ
ſ
ƀ
ƃ
ƅ
ƈ
ƌ
ƍ
ƒ
ƕ
ƙ
ƚ
ƛ
ƞ
ƣ
ƥ
ƨ
ƪ
ƫ
ƭ
ƴ
ƶ
ƹ
ƺ
ƻ
ƽ
ƾ
ƿ
ǀ
ǁ
ǂ
ǃ
ǆ
ǉ
ǌ
ǝ
ǥ
ǳ
ȝ
ȡ
ȣ
ȥ
ȴ
ȵ
ȶ
ȷ
ȼ
ȿ
ɀ
ɂ
ɇ
ɉ
ɋ
ɍ
ɏ
ɐ
ɑ
ɒ
ɓ
ɔ
ɕ
ɖ
ɗ
ɘ
ə
ɚ
ɛ
ɜ
ɝ
ɞ
ɟ
ɠ
ɡ
ɢ
ɣ
ɤ
ɥ
ɦ
ɧ
ɨ
ɩ
ɪ
ɫ
ɬ
ɭ
ɮ
ɯ
ɰ
ɱ
ɲ
ɳ
ɴ
ɵ
ɷ
ɸ
ɹ
ɺ
ɻ
ɼ
ɽ
ɾ
ɿ
ʀ
ʁ
ʂ
ʃ
ʅ
ʆ
ʇ
ʈ
ʉ
ʊ
ʋ
ʌ
ʍ
ʎ
ʏ
ʐ
ʑ
ʒ
ʓ
ʔ
ʕ
ʖ
ʗ
ʘ
ʙ
ʚ
ʜ
ʝ
ʞ
ʟ
ʡ
ʢ
ʤ
ʥ
ʦ
ʧ
ʨ
ʪ
ʮ
ʯ
ʰ
ʱ
ʲ
ʳ
ʷ
ʸ
ʹ
ʺ
ʻ
ʼ
ʽ
ʾ
ʿ
ˀ
ˁ
˂
˃
˄
˅
ˆ
ˇ
ˈ
ˉ
ˊ
ˋ
ˌ
ˍ
ˎ
ˏ
ː
ˑ
˒
˓
˔
˕
˖
˗
˘
˙
˚
˛
˜
˝
˟
ˠ
ˡ
ˢ
ˣ
ˤ
˥
˦
˧
˨
˩
˫
ˬ
˭
ˮ
˯
˰
˱
˲
˳
˴
˵
˶
˷
˸
˹
˺
˻
˼
˽
˾
ͱ
ͳ
͵
ͷ
͸
͹
ͺ
ͻ
ͼ
ͽ
΀
΁
΂
΃
΄
΋
΍
΢
α
β
γ
δ
ε
ζ
η
θ
ι
κ
λ
μ
ν
ξ
ο
π
ρ
ς
σ
τ
υ
φ
χ
ψ
ω
ϐ
ϑ
ϒ
ϕ
ϖ
ϗ
ϙ
ϛ
ϝ
ϟ
ϡ
ϣ
ϥ
ϧ
ϩ
ϫ
ϭ
ϯ
ϰ
ϱ
ϲ
ϳ
ϵ
϶
ϸ
ϻ
ϼ
а
б
в
г
д
е
ж
з
и
к
л
м
н
о
п
р
с
т
у
ф
х
ц
ч
ш
щ
ъ
ы
ь
э
ю
я
ђ
є
ѕ
і
ј
љ
њ
ћ
џ
ѡ
ѣ
ѧ
ѩ
ѫ
ѭ
ѱ
ѳ
ѵ
ѹ
ѻ
ѽ
ѿ
ҁ
҂
҈
҉
ҋ
ҏ
ґ
ғ
ҕ
җ
ҙ
қ
ҝ
ҟ
ҡ
ң
ҥ
ҧ
ҩ
ҫ
ҭ
ү
ұ
ҳ
ҵ
ҷ
ҹ
һ
ҽ
ҿ
ӄ
ӆ
ӈ
ӌ
ӎ
ӏ
ӕ
ә
ӡ
ө
ӷ
ӽ
ԁ
ԃ
ԅ
ԋ
ԍ
ԏ
ԑ
ԓ
ԗ
ԙ
ԛ
ԝ
ԡ
ԣ
ԥ
ԧ
ԩ
ԫ
ԭ
ԯ
԰
ՙ
՚
՛
՜
՝
՞
ա
բ
գ
դ
ե
զ
է
ը
թ
ժ
ի
լ
խ
ծ
կ
հ
ձ
ղ
ճ
մ
յ
ն
շ
ո
չ
պ
ջ
ռ
ս
վ
տ
ր
ց
ւ
փ
ք
օ
ֆ
և
։
֊
֍
־
׀
׃
א
ב
ג
ד
ה
ו
ז
ח
ט
י
ך
כ
ל
ם
מ
ן
נ
ס
ע
ף
פ
ץ
צ
ק
ר
ש
ת
װ
ױ
ײ
׳
״
׶
׻
؈
؊
؋
،
؎
؏
؛
؞
؟
ؠ
ء
ا
ب
ة
ت
ث
ج
ح
خ
د
ذ
ر
ز
س
ش
ص
ض
ط
ظ
ع
غ
ػ
ؼ
ؽ
ؾ
ؿ
ـ
ف
ق
ك
ل
م
ن
ه
و
ى
ي
٠
١
٢
٣
٤
٥
٦
٧
٨
٩
٪
٫
٬
٭
ٮ
ٯ
ٱ
ٲ
ٳ
ٴ
ٶ
ٷ
ٸ
ٹ
ٻ
ټ
ٽ
پ
ٿ
ڂ
ڃ
ڄ
چ
ڇ
ڈ
ډ
ڊ
ڌ
ڍ
ڏ
ڑ
ړ
ڕ
ږ
ژ
ڙ
ښ
ڟ
ڠ
ڡ
ڢ
ڤ
ڦ
ڧ
ڨ
ک
ڪ
ګ
ڬ
ڭ
ڮ
گ
ڰ
ڵ
ڶ
ڸ
ڹ
ں
ڻ
ڼ
ڽ
ھ
ڿ
ہ
ۃ
ۆ
ۇ
ۈ
ۋ
ی
ۍ
ێ
ۏ
ې
ۑ
ے
۔
ە
۞
ۥ
ۦ
۩
۰
۱
۲
۳
۴
۵
۶
۷
۸
۹
ۺ
ۻ
ۼ
ۿ
܀
܎
ܐ
ܒ
ܓ
ܕ
ܖ
ܗ
ܘ
ܙ
ܚ
ܛ
ܜ
ܝ
ܟ
ܠ
ܡ
ܢ
ܣ
ܤ
ܥ
ܦ
ܧ
ܨ
ܩ
ܪ
ܫ
ܬ
ܭ
ܮ
ܯ
݌
ݍ
ݎ
ݏ
ݐ
ݑ
ݒ
ݓ
ݔ
ݕ
ݖ
ݘ
ݛ
ݢ
ݤ
ݦ
ݧ
ݩ
ݰ
ހ
ރ
ބ
ވ
ފ
ދ
ތ
ލ
ޒ
ޔ
ޛ
ޝ
޳
߁
߅
ߊ
ߋ
ߌ
ߍ
ߎ
ߏ
ߐ
ߑ
ߒ
ߓ
ߔ
ߕ
ߘ
ߙ
ߚ
ߜ
ߝ
ߟ
ߠ
ߡ
ߢ
ߤ
ߧ
ߩ
ߪ
߷
ߺ
߽
߿
ࠁ
࠲
࠴
࠷
࠼
ࡎ
࡜
ࡡ
ࡧ
ࡨ
ࡩ
ࡪ
࡫
࡮
࡯
ࡰ
ࡽ
ࢇ
࢔
࢚
࢞
࢟
ࢭ
ࢯ
ࢲ
ࢵ
ࢸ
ࢻ
࣋
࣍
ࣖ
ࣝ
ः
अ
आ
इ
ई
उ
ऊ
ऋ
ऍ
ए
ऐ
ऑ
ओ
औ
क
ख
ग
घ
ङ
च
छ
ज
झ
ञ
ट
ठ
ड
ढ
ण
त
थ
द
ध
न
प
फ
ब
भ
म
य
र
ल
ळ
व
श
ष
स
ह
ऽ
ा
ि
ी
ॉ
ॊ
ो
ौ
ॐ
।
॥
०
१
२
३
४
५
६
७
८
९
॰
ং
ঃ
অ
আ
ই
ঈ
উ
ঊ
এ
ও
ক
খ
গ
ঘ
ঙ
চ
ছ
জ
ঝ
ঞ
ট
ঠ
ড
ঢ
ণ
ত
থ
দ
ধ
ন
প
ফ
ব
ভ
ম
য
র
ল
শ
ষ
স
হ
া
ি
ী
ে
ৈ
ৎ
৐
ৗ
ৡ
০
১
২
৩
৪
৫
৬
৭
৮
৯
ৰ
ৱ
৳
ਅ
ਆ
ਇ
ਈ
ਉ
ਊ
਍
ਏ
ਕ
ਖ
ਗ
ਘ
ਚ
ਛ
ਜ
ਟ
ਠ
ਡ
ਢ
ਣ
ਤ
ਥ
ਦ
ਧ
ਨ
ਪ
ਫ
ਬ
ਭ
ਮ
ਯ
ਰ
ਲ
ਵ
ਸ
ਹ
ਾ
ਿ
ੀ
੐
੔
੖
ੜ
੝
੦
੧
੭
અ
ઇ
ઈ
ઊ
ક
ગ
ચ
છ
જ
ટ
ઠ
ડ
ણ
ત
થ
દ
ધ
ન
પ
ફ
બ
ભ
મ
ય
ર
લ
ળ
વ
શ
ષ
સ
હ
ા
િ
ી
ો
ૌ
ૐ
૑
ૡ
૦
૨
૩
૫
૭
૯
଄
ଆ
ଇ
ଉ
ଏ
ଓ
କ
ଖ
ଗ
ଙ
ଚ
ଛ
ଜ
ଟ
ଡ
ଢ
ତ
ଦ
ନ
ପ
ବ
ମ
ଯ
ର
ଲ
ଳ
଴
ଵ
ଶ
ଷ
ସ
ହ
଻
ଽ
ା
ୀ
େ
୒
ୟ
୧
୨
୸
ஃ
அ
ஆ
இ
உ
ஊ
ஏ
ஐ
ஒ
ஓ
க
ங
ச
ஜ
ஞ
ட
ண
த
஦
ந
ன
ப
ம
ய
ர
ற
ல
ள
ழ
வ
ஷ
ஸ
ஹ
஺
஻
஼
ா
ி
ு
ூ
௃
௄
ெ
ே
ை
௉
௔
௕
ௗ
௘
௚
௛
௟
௠
௡
௢
௥
௦
௧
௨
௩
௪
௫
௬
௭
௮
௯
௰
௵
ం
ః
అ
ఆ
ఇ
ఈ
ఉ
ఊ
ఌ
ఎ
఑
ఒ
ఔ
క
గ
ఙ
చ
ఛ
జ
ఞ
ట
ఠ
డ
ఢ
ణ
త
థ
ద
ధ
న
ప
ఫ
బ
భ
మ
య
ర
ల
ళ
వ
శ
ష
స
హ
ు
ూ
ృ
౏
౦
౩
౪
౻
౽
౿
ಂ
ಃ
ಅ
ಆ
ಇ
ಉ
ಊ
ಋ
ಌ
ಎ
ಏ
ಐ
ಓ
ಕ
ಖ
ಗ
ಜ
ಟ
ಠ
ಡ
ಢ
ಣ
ತ
ಥ
ದ
ಧ
ನ
ಪ
ಫ
ಬ
ಭ
ಮ
ಯ
ರ
ಲ
ಳ
಴
ವ
ಶ
ಷ
ಸ
ಹ
ಾ
ು
ೂ
ೃ
೉
ೕ
ೖ
೙
೥
೦
೧
೨
೪
೭
೮
೯
ഀ
ം
ഃ
അ
ആ
ഇ
ഈ
ഊ
ഋ
എ
ഏ
഑
ഒ
ഓ
ക
ഖ
ഗ
ഘ
ങ
ച
ജ
ഝ
ഞ
ട
ഡ
ണ
ത
ഥ
ദ
ധ
ന
ഩ
പ
ഫ
ബ
ഭ
മ
യ
ര
റ
ല
ള
ഴ
വ
ശ
ഷ
സ
ഹ
ാ
ി
ീ
൅
െ
േ
ൈ
൒
ൗ
ൠ
൦
൨
൩
൫
൬
൭
൮
൯
൱
൲
ൺ
ൻ
ർ
ൽ
ൾ
ං
අ
ආ
ඇ
ඉ
උ
ඌ
එ
ඔ
ක
ග
ඟ
ච
ඡ
ජ
ඥ
ට
ඨ
ඩ
ණ
ත
ථ
ද
ධ
න
ඳ
ප
බ
ම
ඹ
ය
ර
ල
ව
ශ
ෂ
ස
හ
ළ
ෆ
෍
ා
ැ
ෑ
ෙ
ෟ
෤
෬
෴
฀
ก
ข
ฃ
ค
ฅ
ฆ
ง
จ
ฉ
ช
ซ
ฌ
ญ
ฎ
ฏ
ฐ
ฑ
ฒ
ณ
ด
ต
ถ
ท
ธ
น
บ
ป
ผ
ฝ
พ
ฟ
ภ
ม
ย
ร
ฤ
ล
ฦ
ว
ศ
ษ
ส
ห
ฬ
อ
ฮ
ฯ
ะ
า
ำ
฿
เ
แ
โ
ใ
ไ
ๅ
ๆ
๏
๐
๑
๒
๓
๔
๕
๖
๗
๘
๙
๛
ກ
ຂ
ຄ
ງ
ຈ
ຊ
ຍ
ດ
ຕ
ຖ
ທ
ນ
ບ
ປ
ຜ
ຝ
ພ
ມ
ຢ
ຣ
ລ
ວ
ສ
ຫ
ອ
ຮ
ະ
າ
ຽ
ເ
ແ
ໂ
ໃ
ໄ
໒
ໜ
ໝ
໱
༄
༆
༉
་
།
༎
༠
༡
༶
༺
༻
༼
༽
ཀ
ཁ
ག
ང
ཆ
ཇ
཈
ཌ
ཏ
ཐ
ད
ན
པ
ཕ
བ
མ
ཚ
ཛ
ཝ
ཞ
ཟ
འ
ཡ
ར
ལ
ཤ
ས
ཨ
ྉ
࿈
࿐
࿖
࿯
࿾
က
ခ
ဂ
င
စ
ဆ
ဇ
ဉ
ည
ဋ
ဍ
ဏ
တ
ထ
ဒ
ဓ
န
ပ
ဖ
ဗ
ဘ
မ
ယ
ရ
လ
ဝ
သ
ဟ
အ
ဥ
ဧ
ဩ
ါ
ာ
ေ
း
ျ
ြ
ဿ
၀
၁
၂
၃
၄
၅
၆
၇
၈
၉
၊
။
၍
၏
ၚ
ၢ
ၤ
ၥ
ၨ
ၵ
ၶ
ၸ
ၺ
ၻ
ၼ
ၽ
ၾ
ၿ
ႀ
ႁ
ႃ
ႇ
ႈ
ႊ
ႏ
႐
႒
႔
႕
႘
ა
ბ
გ
დ
ე
ვ
ზ
თ
ი
კ
ლ
მ
ნ
ო
პ
ჟ
რ
ს
ტ
უ
ფ
ქ
ღ
ყ
შ
ჩ
ც
ძ
წ
ჭ
ხ
ჯ
ჰ
ჱ
ჲ
ᄀ
ᄁ
ᄂ
ᄃ
ᄄ
ᄅ
ᄆ
ᄇ
ᄈ
ᄉ
ᄊ
ᄋ
ᄌ
ᄍ
ᄎ
ᄏ
ᄐ
ᄑ
ᄒ
ᄢ
ᄽ
ᅌ
ᅙ
ᅟ
ᅡ
ᅢ
ᅣ
ᅤ
ᅥ
ᅦ
ᅧ
ᅨ
ᅩ
ᅪ
ᅫ
ᅬ
ᅭ
ᅮ
ᅯ
ᅰ
ᅱ
ᅲ
ᅳ
ᅴ
ᅵ
ᆈ
ᆞ
ᆡ
ᆨ
ᆩ
ᆪ
ᆫ
ᆬ
ᆭ
ᆮ
ᆯ
ᆰ
ᆱ
ᆲ
ᆳ
ᆴ
ᆵ
ᆶ
ᆷ
ᆸ
ᆹ
ᆺ
ᆻ
ᆼ
ᆽ
ᆾ
ᆿ
ᇀ
ᇁ
ᇂ
ᇐ
ᇰ
ሀ
ሁ
ሂ
ሃ
ሄ
ህ
ሆ
ለ
ሉ
ሊ
ላ
ሌ
ል
ሎ
ሐ
ሓ
ሔ
ሕ
መ
ሙ
ሚ
ማ
ሜ
ም
ሣ
ሥ
ረ
ሩ
ሪ
ራ
ሬ
ር
ሮ
ሰ
ሱ
ሲ
ሳ
ሴ
ስ
ሷ
ሸ
ሺ
ሻ
ሼ
ሽ
ቀ
ቁ
ቂ
ቃ
ቅ
ቆ
ቇ
ቈ
ቊ
ቕ
በ
ቡ
ቢ
ባ
ቤ
ብ
ቦ
ቪ
ቬ
ተ
ቱ
ቲ
ታ
ቴ
ት
ቶ
ቸ
ቺ
ቻ
ች
ኍ
ነ
ኒ
ና
ኔ
ን
ኖ
ኛ
ኝ
አ
ኡ
ኢ
ኣ
ኤ
እ
ኦ
ከ
ኩ
ኪ
ካ
ክ
ኮ
ኻ
ኽ
ዀ
ወ
ዊ
ዋ
ዌ
ው
ዎ
ዓ
ዕ
ዘ
ዙ
ዚ
ዛ
ዜ
ዝ
ዞ
የ
ዩ
ዪ
ያ
ዬ
ይ
ዮ
ደ
ዱ
ዲ
ዳ
ዴ
ድ
ዶ
ጀ
ጁ
ጃ
ጅ
ጆ
ገ
ጉ
ጊ
ጋ
ግ
ጎ
ጓ
ጠ
ጣ
ጤ
ጥ
ጦ
ጧ
ጭ
ጵ
ጽ
ፈ
ፊ
ፋ
ፌ
ፍ
ፎ
ፑ
ፕ
ፖ
፡
።
፣
፦
፧
፩
᎑
ᏼ
᐀
ᐂ
ᐃ
ᐅ
ᐇ
ᐈ
ᐉ
ᐍ
ᐏ
ᐕ
ᐛ
ᐝ
ᐞ
ᐢ
ᐤ
ᐦ
ᐨ
ᐳ
ᐸ
ᐻ
ᑉ
ᑏ
ᑖ
ᑟ
ᑭ
ᑯ
ᑼ
ᑾ
ᑿ
ᒁ
ᒂ
ᒃ
ᒆ
ᒇ
ᒋ
ᒍ
ᒎ
ᒝ
ᒥ
ᒨ
ᒪ
ᒫ
ᒬ
ᒯ
ᒸ
ᒼ
ᓀ
ᓁ
ᓂ
ᓄ
ᓇ
ᓊ
ᓍ
ᓕ
ᓗ
ᓛ
ᓜ
ᓞ
ᓢ
ᓦ
ᓧ
ᓫ
ᓮ
ᓴ
ᓵ
ᓶ
ᓻ
ᓼ
ᓾ
ᔀ
ᔁ
ᔃ
ᔅ
ᔒ
ᔓ
ᔕ
ᔝ
ᔞ
ᕀ
ᕈ
ᕓ
ᕕ
ᕗ
ᕙ
ᕡ
ᕢ
ᕣ
ᕤ
ᕦ
ᕮ
ᕶ
ᕼ
ᕿ
ᖀ
ᖅ
ᖇ
ᖳ
ᖴ
ᖺ
ᗊ
ᗐ
ᗑ
ᗒ
ᗔ
ᗕ
ᗖ
ᗗ
ᗚ
ᗛ
ᗜ
ᗣ
ᗨ
ᗩ
ᗪ
ᗯ
ᗷ
ᘉ
ᘮ
ᙓ
ᙗ
ᙜ
ᙢ
ᙦ
ᚄ
ᚅ
ᚈ
ᚒ
ᚔ
ᚙ
᚛
ᚢ
ᚼ
ᚾ
ᛁ
ᛎ
ᛒ
ᛕ
ᛘ
ក
ខ
គ
ឃ
ង
ច
ឆ
ជ
ឈ
ញ
ដ
ឌ
ណ
ត
ថ
ទ
ធ
ន
ប
ផ
ព
ភ
ម
យ
រ
ល
វ
ស
ហ
ឡ
អ
ឥ
ឧ
ឪ
ឬ
ឯ
ឲ
ា
ើ
ឿ
ៀ
េ
ែ
ៃ
ោ
ៅ
ះ
ៈ
។
៖
ៗ
៛
០
១
២
៤
៧
៨
៩
៯
ᠠ
ᠢ
ᠣ
ᠦ
ᠪ
ᠬ
ᠭ
ᠰ
ᠱ
ᠲ
ᠳ
ᠷ
ᡡ
ᡤ
ᡧ
᡽
ᢥ
ᣇ
ᣉ
ᣞ
ᣣ
᣿
ᤐ
ᥒ
ᥙ
ᥱ
ᦙ
ᦠ
ᧄ
᧐
᧦
ᨀ
ᨁ
ᨂ
ᨄ
ᨅ
ᨆ
ᨈ
ᨊ
ᨌ
ᨑ
ᨒ
ᨓ
ᨔ
ᨕ
ᨚ
᪐
᪣
ᬄ
ᬅ
ᬍ
ᬓ
ᬗ
ᬚ
ᬢ
ᬤ
ᬦ
ᬧ
ᬩ
ᬫ
ᬭ
ᬮ
ᬯ
ᬱ
ᬲ
ᬵ
ᬾ
ᬿ
᭄
ᭉ
᭙
᭟
ᮂ
ᮃ
ᮄ
ᮅ
ᮆ
ᮇ
ᮈ
ᮉ
ᮊ
ᮌ
ᮍ
ᮎ
ᮏ
ᮑ
ᮒ
ᮓ
ᮔ
ᮕ
ᮖ
ᮗ
ᮘ
ᮙ
ᮚ
ᮛ
ᮜ
ᮝ
ᮞ
ᮠ
ᮡ
ᮦ
ᮧ
᮪
ᮯ
᮰
᮱
᮲
᮳
᮴
᮵
᮶
᮷
᮸
᮹
ᮺ
ᮻ
ᮼ
ᮽ
ᮾ
ᮿ
ᯂ
ᯃ
ᯅ
ᯇ
ᯉ
ᯐ
ᯑ
ᯒ
ᯔ
ᯕ
ᯖ
ᯗ
ᯘ
ᯙ
ᯝ
ᯞ
ᯟ
ᯤ
ᯥ
ᯪ
ᯫ
ᯬ
ᯮ
᯲
᯳
᳁
᳃
᳄
᳅
᳆
᳇
ᴀ
ᴂ
ᴄ
ᴅ
ᴇ
ᴉ
ᴊ
ᴋ
ᴍ
ᴎ
ᴏ
ᴐ
ᴑ
ᴓ
ᴕ
ᴖ
ᴗ
ᴘ
ᴙ
ᴛ
ᴜ
ᴠ
ᴡ
ᴢ
ᴣ
ᴤ
ᴥ
ᴦ
ᴧ
ᴨ
ᴩ
ᴪ
ᴫ
ᴬ
ᴮ
ᴯ
ᴰ
ᴱ
ᴲ
ᴳ
ᴴ
ᴵ
ᴶ
ᴷ
ᴸ
ᴹ
ᴺ
ᴻ
ᴼ
ᴾ
ᴿ
ᵀ
ᵁ
ᵂ
ᵃ
ᵄ
ᵅ
ᵇ
ᵈ
ᵉ
ᵊ
ᵌ
ᵍ
ᵎ
ᵏ
ᵐ
ᵑ
ᵒ
ᵔ
ᵕ
ᵖ
ᵗ
ᵘ
ᵛ
ᵜ
ᵝ
ᵞ
ᵟ
ᵠ
ᵡ
ᵢ
ᵣ
ᵤ
ᵦ
ᵧ
ᵨ
ᵪ
ᵭ
ᵯ
ᵳ
ᵴ
ᵹ
ᵻ
ᵼ
ᵿ
ᶅ
ᶆ
ᶇ
ᶊ
ᶔ
ᶖ
ᶘ
ᶙ
ᶛ
ᶜ
ᶞ
ᶟ
ᶠ
ᶢ
ᶣ
ᶦ
ᶨ
ᶩ
ᶫ
ᶯ
ᶰ
ᶱ
ᶲ
ᶴ
ᶹ
ᶺ
ᶻ
ᶾ
ᶿ
᷻
ẟ
ỿ
᾽
᾿
῀
῅
῔
῾
‐
‑
‒
–
—
―
‖
‗
‘
’
‚
‛
“
”
„
‟
†
‡
•
‣
․
‥
…
‧
‰
‱
′
″
‴
‵
‶
‸
‹
›
※
‼
‽
‾
‿
⁀
⁂
⁃
⁄
⁅
⁆
⁈
⁉
⁋
⁎
⁕
⁘
⁙
⁛
⁝
⁞
⁰
ⁱ
⁲
⁴
⁵
⁶
⁷
⁸
⁹
⁺
⁻
⁽
⁾
ⁿ
₀
₁
₂
₃
₄
₅
₆
₇
₈
₉
₊
₋
₌
₍
₎
ₐ
ₑ
ₒ
ₓ
ₕ
ₙ
₠
₡
₣
₤
₦
₧
₨
₩
₪
₫
€
₭
₮
₯
₰
₱
₲
₳
₴
₵
₷
₸
₹
₺
₼
₽
₾
₿
⃝
⃞
⃟
⃠
⃣
℁
ℂ
℃
℅
ℇ
℈
℉
ℊ
ℋ
ℌ
ℍ
ℎ
ℏ
ℐ
ℑ
ℒ
ℓ
℔
ℕ
№
℗
℘
ℙ
ℚ
ℛ
ℜ
ℝ
℞
℟
℠
℡
™
℣
ℤ
ℬ
ℭ
℮
ℯ
ℰ
ℱ
ℳ
ℴ
ℵ
ℷ
ℸ
ℹ
℻
ℼ
ℽ
⅀
ⅅ
ⅈ
ⅎ
⅒
⅓
⅔
⅕
⅖
⅗
⅘
⅙
⅚
⅛
⅜
⅝
⅞
⅟
ⅰ
ⅱ
ⅲ
ⅳ
ⅴ
ⅵ
ⅶ
ⅷ
ⅸ
ⅹ
ⅺ
ⅻ
ⅼ
ⅽ
ⅾ
ⅿ
ↀ
ↁ
ↂ
ↄ
←
↑
→
↓
↔
↕
↖
↗
↘
↙
↝
↞
↟
↠
↡
↢
↣
↥
↦
↧
↨
↩
↪
↫
↬
↭
↯
↱
↲
↳
↴
↵
↶
↷
↸
↹
↺
↻
↼
↽
↾
↿
⇀
⇁
⇄
⇅
⇆
⇇
⇈
⇉
⇊
⇋
⇌
⇐
⇑
⇒
⇓
⇔
⇗
⇘
⇙
⇚
⇛
⇜
⇝
⇞
⇟
⇠
⇡
⇢
⇣
⇥
⇦
⇧
⇨
⇩
⇪
⇫
⇬
⇭
⇰
⇱
⇲
⇴
⇶
⇸
⇼
⇽
⇾
⇿
∀
∁
∂
∃
∅
∆
∇
∈
∊
∋
∎
∏
∑
−
∓
∕
∖
∗
∘
∙
√
∛
∜
∝
∞
∟
∠
∡
∢
∣
∥
∧
∨
∩
∪
∫
∬
∭
∮
∯
∰
∲
∳
∴
∵
∶
∷
∻
∼
∽
∾
≃
≅
≈
≋
≌
≍
≒
≔
≖
≚
≛
≟
≡
≣
≤
≥
≦
≧
≪
≫
≲
≳
≶
≷
≺
≼
≽
⊂
⊃
⊆
⊇
⊊
⊕
⊖
⊗
⊘
⊙
⊚
⊛
⊝
⊞
⊟
⊡
⊢
⊣
⊤
⊥
⊧
⊨
⊰
⊱
⊲
⊳
⊶
⊷
⊹
⊻
⊿
⋀
⋁
⋂
⋃
⋄
⋅
⋆
⋇
⋈
⋉
⋋
⋌
⋎
⋏
⋒
⋔
⋕
⋗
⋘
⋙
⋞
⋟
⋮
⋯
⋰
⋱
⋲
⌀
⌁
⌂
⌃
⌄
⌅
⌇
⌈
⌉
⌊
⌋
⌐
⌑
⌒
⌓
⌔
⌕
⌖
⌘
⌚
⌛
⌜
⌝
⌞
⌟
⌠
⌡
⌣
⌤
⌥
⌦
⌧
⌨
⌫
⌬
⌯
⌱
⌲
⌳
⌷
⌹
⌺
⌻
⌼
⌽
⌾
⍁
⍂
⍃
⍄
⍅
⍇
⍈
⍌
⍍
⍐
⍓
⍔
⍖
⍗
⍙
⍜
⍞
⍟
⍢
⍣
⍤
⍨
⍭
⍲
⍳
⍴
⍵
⍺
⍻
⍽
⎅
⎇
⎉
⎋
⎏
⎕
⎙
⎛
⎜
⎝
⎞
⎟
⎠
⎡
⎢
⎣
⎤
⎥
⎦
⎧
⎨
⎩
⎪
⎫
⎬
⎭
⎮
⎯
⎲
⎵
⎷
⎻
⎼
⎾
⎿
⏊
⏌
⏎
⏏
⏐
⏚
⏜
⏝
⏞
⏟
⏠
⏤
⏨
⏩
⏪
⏫
⏬
⏭
⏮
⏯
⏰
⏱
⏲
⏳
⏵
⏶
⏸
⏹
⏺
␊
␐
␓
␔
␕
␘
␙
␜
␝
␢
␣
␥
␦
⑄
⑅
⑈
①
②
③
④
⑤
⑥
⑦
⑧
⑨
⑩
⑪
⑫
⑬
⑭
⑮
⑯
⑰
⑱
⑲
⑳
⑴
⑵
⑶
⑷
⑸
⑹
⑺
⑻
⑼
⑽
⑾
⑿
⒀
⒁
⒂
⒃
⒄
⒅
⒆
⒇
⒈
⒉
⒊
⒋
⒌
⒍
⒎
⒏
⒐
⒑
⒗
⒛
⒜
⒝
⒟
⒠
⒢
⒤
⒩
⒪
⒯
⒴
ⓐ
ⓑ
ⓒ
ⓓ
ⓔ
ⓕ
ⓖ
ⓗ
ⓘ
ⓙ
ⓚ
ⓛ
ⓜ
ⓝ
ⓞ
ⓟ
ⓠ
ⓡ
ⓢ
ⓣ
ⓤ
ⓥ
ⓦ
ⓧ
ⓨ
ⓩ
⓪
⓫
⓭
⓮
⓯
⓵
⓶
⓷
⓸
⓹
⓺
⓻
⓼
⓽
⓾
⓿
─
━
│
┃
┄
┅
┆
┇
┈
┉
┊
┋
┌
┍
┎
┏
┐
┑
┒
┓
└
┗
┘
┙
┛
├
┣
┤
┥
┫
┬
┭
┮
┯
┰
┳
┴
┷
┸
┻
┼
╀
╅
╆
╈
╋
╏
═
║
╒
╓
╔
╕
╖
╗
╘
╙
╚
╛
╜
╝
╞
╟
╠
╡
╢
╣
╤
╥
╦
╧
╨
╩
╪
╫
╬
╭
╮
╯
╰
╱
╲
╳
╸
╹
╺
╻
╼
╾
▀
▁
▂
▃
▄
▅
▆
▇
█
▉
▋
▌
▍
▎
▏
▐
░
▒
▓
▔
▕
▖
▗
▘
▙
▚
▛
▜
▝
▞
■
□
▢
▣
▤
▥
▦
▧
▨
▩
▪
▫
▬
▭
▮
▯
▰
▲
△
▴
▵
▶
▷
▸
▹
►
▻
▼
▽
▾
▿
◀
◁
◂
◃
◄
◅
◆
◇
◈
◉
◊
○
◌
◍
◎
●
◐
◑
◒
◓
◔
◕
◖
◗
◘
◙
◜
◝
◞
◟
◠
◡
◢
◣
◤
◥
◦
◧
◨
◩
◪
◬
◭
◮
◯
◵
◹
◺
◻
◼
◽
◾
☀
☁
☂
☃
☄
★
☆
☇
☈
☉
☊
☋
☌
☍
☎
☏
☐
☑
☒
☓
☔
☕
☗
☘
☙
☚
☛
☜
☝
☞
☟
☠
☡
☢
☣
☤
☥
☦
☧
☨
☩
☪
☫
☬
☭
☮
☯
☰
☱
☲
☳
☴
☵
☶
☷
☸
☹
☺
☻
☼
☽
☾
☿
♀
♁
♂
♃
♄
♆
♇
♈
♉
♊
♋
♌
♍
♎
♏
♐
♑
♒
♓
♔
♕
♖
♗
♘
♙
♚
♛
♜
♝
♞
♟
♠
♡
♢
♣
♤
♥
♦
♧
♨
♩
♪
♫
♬
♭
♮
♯
♰
♱
♲
♳
♴
♵
♶
♺
♻
♼
♾
♿
⚀
⚁
⚂
⚃
⚄
⚅
⚆
⚇
⚈
⚉
⚊
⚋
⚌
⚍
⚎
⚏
⚐
⚑
⚒
⚓
⚔
⚕
⚖
⚗
⚘
⚙
⚛
⚜
⚞
⚠
⚡
⚢
⚤
⚥
⚩
⚪
⚫
⚬
⚯
⚰
⚱
⚲
⚳
⚶
⚻
⚽
⚾
⚿
⛄
⛅
⛆
⛇
⛈
⛉
⛊
⛌
⛎
⛏
⛑
⛒
⛓
⛔
⛛
⛟
⛡
⛤
⛥
⛦
⛧
⛨
⛩
⛪
⛫
⛯
⛰
⛱
⛲
⛳
⛴
⛵
⛶
⛷
⛸
⛹
⛺
⛼
⛽
⛾
✁
✂
✃
✄
✅
✆
✇
✈
✉
✊
✋
✌
✍
✎
✏
✐
✑
✒
✓
✔
✕
✖
✗
✘
✙
✚
✛
✜
✝
✞
✟
✠
✡
✢
✣
✤
✥
✦
✧
✨
✩
✪
✫
✬
✭
✮
✯
✰
✱
✲
✳
✴
✵
✶
✷
✸
✹
✺
✻
✼
✽
✾
✿
❀
❁
❂
❃
❄
❅
❆
❇
❈
❉
❊
❋
❌
❍
❎
❏
❐
❑
❒
❓
❔
❕
❖
❗
❘
❙
❚
❛
❜
❝
❞
❟
❢
❣
❤
❥
❦
❧
❨
❩
❬
❭
❮
❯
❰
❱
❲
❳
❶
❷
❸
❹
❺
❻
❼
❽
❾
❿
➀
➁
➂
➃
➄
➅
➆
➇
➈
➉
➊
➋
➌
➍
➎
➏
➐
➑
➒
➓
➔
➕
➖
➗
➘
➙
➚
➛
➜
➝
➞
➟
➠
➡
➢
➣
➤
➥
➦
➧
➨
➩
➪
➫
➬
➭
➮
➯
➰
➱
➲
➳
➴
➵
➶
➷
➸
➹
➺
➻
➼
➽
➾
➿
⟗
⟡
⟣
⟦
⟧
⟨
⟩
⟪
⟰
⟱
⟲
⟳
⟴
⟵
⟶
⟷
⟸
⟹
⟺
⟼
⟾
⟿
⠀
⠁
⠂
⠇
⠉
⠊
⠋
⠌
⠎
⠒
⠔
⠘
⠞
⠟
⠦
⠳
⠸
⠿
⡁
⡆
⡍
⡒
⡟
⡡
⡬
⡭
⡮
⡶
⡷
⡸
⡼
⡽
⢁
⢇
⢌
⢕
⢝
⢞
⢣
⢥
⢧
⢫
⢭
⢾
⣀
⣄
⣅
⣇
⣌
⣑
⣒
⣘
⣙
⣠
⣤
⤀
⤂
⤃
⤅
⤆
⤇
⤋
⤍
⤏
⤑
⤓
⤔
⤕
⤚
⤛
⤜
⤞
⤟
⤠
⤤
⤧
⤨
⤳
⤴
⤵
⤶
⤷
⤹
⤺
⤼
⤿
⥁
⥂
⥄
⥅
⥉
⥤
⥦
⥪
⥬
⥮
⥴
⥵
⥶
⥹
⥺
⥻
⦁
⦅
⦆
⦋
⦌
⦍
⦎
⦏
⦐
⦕
⦖
⦗
⦘
⦙
⦟
⦣
⦾
⦿
⧉
⧍
⧖
⧜
⧣
⧪
⧫
⧬
⧭
⧳
⧼
⧽
⧾
⧿
⨀
⨁
⨉
⨪
⨯
⨵
⩗
⩥
⩧
⩼
⩽
⩾
⪲
⪼
⫐
⫪
⫸
⫺
⫽
⬀
⬂
⬄
⬅
⬆
⬇
⬌
⬎
⬐
⬛
⬜
⬠
⬢
⬤
⬥
⬦
⬰
⬱
⭂
⭄
⭆
⭐
⭕
⭵
⮭
⮮
⮴
⯆
⯈
⯐
ⰲ
ⰸ
ⰺ
ⰽ
ⰾ
ⱀ
ⱁ
ⱄ
ⱏ
ⱐ
ⱑ
ⱗ
ⱥ
ⱦ
ⱱ
ⱳ
ⱴ
ⱶ
ⱷ
ⱺ
ⱼ
ⲁ
ⲃ
ⲉ
ⲏ
ⲓ
ⲕ
ⲙ
ⲛ
ⲟ
ⲣ
ⲥ
ⲧ
ⲩ
ⲫ
ⲭ
⳾
ⴃ
ⴈ
ⴎ
ⴛ
ⴝ
ⴰ
ⴱ
ⴳ
ⴷ
ⴻ
ⴽ
ⵉ
ⵊ
ⵍ
ⵎ
ⵏ
ⵓ
ⵔ
ⵕ
ⵖ
ⵙ
ⵛ
ⵜ
ⵢ
ⵣ
⵴
⸈
⸜
⸝
⸞
⸥
⸮
⸰
⸸
⸺
⸻
⹿
⺆
⺖
⺼
⻏
⻦
⼄
⽓
⽕
⾊
⾍
⾦
⿎
⿝
⿠
⿤
⿬
⿿
、
。
〃
〄
々
〆
〇
〈
〉
《
》
「
」
『
』
【
】
〒
〓
〔
〕
〖
〗
〘
〙
〚
〛
〜
〝
〞
〟
〠
〡
〢
〣
〤
〥
〦
〧
〨
〩
〰
〱
〴
〵
〶
〷
〽
〾
ぁ
あ
ぃ
い
ぅ
う
ぇ
え
ぉ
お
か
き
く
け
こ
さ
し
す
せ
そ
た
ち
っ
つ
て
と
な
に
ぬ
ね
の
は
ひ
ふ
へ
ほ
ま
み
む
め
も
ゃ
や
ゅ
ゆ
ょ
よ
ら
り
る
れ
ろ
わ
ゐ
ゑ
を
ん
ゖ
゛
゜
ゝ
ァ
ア
ィ
イ
ゥ
ウ
ェ
エ
ォ
オ
カ
キ
ク
ケ
コ
サ
シ
ス
セ
ソ
タ
チ
ッ
ツ
テ
ト
ナ
ニ
ヌ
ネ
ノ
ハ
ヒ
フ
ヘ
ホ
マ
ミ
ム
メ
モ
ャ
ヤ
ュ
ユ
ョ
ヨ
ラ
リ
ル
レ
ロ
ヮ
ワ
ヰ
ヱ
ヲ
ン
ヵ
ヶ
・
ー
ヽ
ㄅ
ㄆ
ㄇ
ㄈ
ㄉ
ㄊ
ㄋ
ㄍ
ㄎ
ㄏ
ㄐ
ㄑ
ㄒ
ㄓ
ㄔ
ㄕ
ㄖ
ㄗ
ㄘ
ㄙ
ㄚ
ㄛ
ㄝ
ㄞ
ㄟ
ㄠ
ㄡ
ㄢ
ㄣ
ㄤ
ㄥ
ㄦ
ㄧ
ㄨ
ㄩ
ㄱ
ㄲ
ㄳ
ㄴ
ㄵ
ㄶ
ㄷ
ㄸ
ㄹ
ㄺ
ㄻ
ㄼ
ㄽ
ㄾ
ㄿ
ㅀ
ㅁ
ㅂ
ㅃ
ㅄ
ㅅ
ㅆ
ㅇ
ㅈ
ㅉ
ㅊ
ㅋ
ㅌ
ㅍ
ㅎ
ㅏ
ㅐ
ㅑ
ㅒ
ㅓ
ㅔ
ㅕ
ㅖ
ㅗ
ㅘ
ㅙ
ㅚ
ㅛ
ㅜ
ㅝ
ㅞ
ㅟ
ㅠ
ㅡ
ㅢ
ㅣ
ㅤ
ㅸ
ㅿ
ㆀ
ㆁ
ㆆ
ㆍ
㇠
ㇱ
ㇴ
ㇵ
ㇷ
ㇸ
ㇽ
㈜
㈠
㈢
㈹
㉍
㉔
㉖
㉨
㊀
㊁
㊂
㊃
㊄
㊅
㊆
㊇
㊈
㊉
㊊
㊋
㊌
㊍
㊎
㊏
㊐
㊑
㊒
㊓
㊔
㊕
㊖
㊗
㊙
㊣
㋛
㋡
㋮
㋰
㌌
㍍
㍛
㎍
㎎
㎏
㎒
㎕
㎖
㎘
㎛
㎜
㎝
㎞
㎟
㎠
㎡
㎢
㎤
㎥
㎲
㏄
㏈
㏊
㏒
㐂
㐚
㐿
㑆
㑐
㒮
㓸
㔕
㘑
㚻
㝵
㠉
㠲
㡣
㤱
㧋
㧔
㧕
㧛
㩠
㩲
㩴
㬩
㭬
㭸
㰀
㳩
㴏
㴯
㴼
㵎
㵑
㵦
㵳
㷓
㸀
㸃
㸌
㸜
㸦
㸧
㹣
㻌
㻔
㻹
㻼
㻿
㼍
㼏
㼑
㼗
㼙
㼚
㼜
㼞
㼡
㼵
㼿
㾀
㿮
䀆
䀉
䁆
䁓
䁔
䂪
䃇
䄢
䄮
䄴
䅽
䆗
䆛
䉙
䊆
䊸
䍉
䕌
䕿
䘀
䛀
䛔
䛖
䛣
䛴
䛹
䛾
䜂
䜌
䜒
䜚
䠄
䡝
䡮
䡾
䣒
䥨
䦋
䨰
䩄
䬟
䭜
䳥
䷆
一
丁
丂
七
万
丈
三
上
下
不
与
丏
丐
丑
专
且
丕
世
丘
丙
业
丛
东
丝
丞
丟
両
丢
两
严
並
丧
丨
个
丫
中
丰
串
临
丵
丶
丸
丹
为
主
丼
丽
举
丿
乀
乁
乂
乃
久
乇
么
义
之
乌
乍
乎
乏
乐
乒
乓
乔
乖
乗
乘
乙
乚
乛
乜
九
乞
也
习
乡
书
乩
买
乱
乳
乾
亀
亂
亅
了
予
争
事
二
于
亏
云
互
五
井
亖
亚
些
亜
亞
亟
亠
亡
亢
交
亥
亦
产
亨
亩
享
京
亭
亮
亰
亲
亳
亶
人
亻
亿
什
仁
仂
仅
仆
仇
仉
今
介
仍
从
仏
仐
仑
仓
仔
仕
他
仗
付
仙
仚
仝
代
令
以
仪
们
仮
仰
仲
件
价
任
份
仿
企
伃
伊
伋
伍
伎
伏
伐
休
众
优
伙
会
伝
伞
伟
传
伤
伦
伪
伬
伯
估
伴
伶
伷
伸
伺
似
伽
佃
但
佈
位
低
住
佐
佑
体
佔
何
佗
佘
余
佚
佛
作
佟
你
佣
佥
佩
佪
佬
佳
併
佼
佾
使
侃
侄
來
侇
例
侍
侑
侖
侗
侘
供
依
侠
価
侣
侦
侧
侨
侮
侯
侵
侶
侹
便
係
促
俄
俉
俊
俎
俏
俐
俑
俗
俚
保
俞
俟
俠
信
俣
俩
俪
俭
修
俱
俳
俵
俺
倈
倉
個
倍
們
倒
倖
倘
候
倚
借
値
倦
倩
倪
倫
倭
倶
债
倻
值
倾
偁
偃
假
偈
偉
偏
偕
做
停
健
側
偵
偶
偷
偽
偿
傀
傅
傋
傍
傑
傒
傗
傘
備
傢
傣
储
催
傭
傲
傳
債
傷
傻
傾
僅
働
僎
像
僑
僕
僖
僚
僧
僭
僮
僱
僵
價
儀
儂
億
儉
儋
儒
儔
儕
儖
儘
儚
償
儡
優
儫
儲
儳
儷
儸
儺
儼
儿
兀
允
元
兄
充
兆
兇
先
光
克
兌
免
兎
児
兑
兒
兓
兔
党
兜
入
內
全
兩
兪
八
公
六
兮
兰
共
关
兴
兵
其
具
典
养
兼
兽
冀
冂
内
円
冇
冈
冉
冊
册
再
冑
冒
冕
冗
写
冚
军
农
冠
冢
冤
冥
冧
冨
冩
冪
冫
冬
冯
冰
冱
冲
决
冴
况
冶
冷
冸
冻
净
凄
准
凇
凈
凉
凋
凌
凍
减
凛
凜
凝
几
凡
凤
凥
処
凧
凩
凪
凭
凯
凰
凱
凳
凶
凸
凹
出
击
凼
函
刀
刁
刃
分
切
刈
刊
刍
刑
划
列
刘
则
刚
创
初
删
判
別
刦
刨
利
刪
别
刮
到
制
刷
券
刹
刺
刻
刾
剁
剂
剃
則
剉
削
剋
剌
前
剑
剖
剛
剝
剡
剣
剤
剥
剧
剩
剪
副
割
創
剷
劃
劇
劈
劉
劍
劑
力
劝
办
功
加
务
劣
劦
动
助
努
劫
劭
励
劲
劳
労
効
势
勁
勃
勅
勇
勉
勋
勍
勒
動
勘
務
勛
勝
勞
募
勢
勤
勧
勰
勲
勳
勵
勹
勺
勻
勾
勿
匁
匂
包
匆
匈
匕
化
北
匙
匠
匡
匣
匪
匮
匯
匶
匹
区
医
匿
區
十
千
卅
卆
升
午
半
卍
华
协
卐
卑
卒
卓
協
单
卖
南
単
博
卜
卝
卞
卟
占
卡
卢
卤
卦
卧
卫
卭
卯
印
危
即
却
卵
卷
卸
卻
卼
卽
卿
厂
厄
厅
历
厉
压
厌
厓
厕
厖
厘
厚
厝
原
厢
厥
厦
厨
厩
厭
厮
厲
厳
厶
去
县
叁
参
參
又
叉
及
友
双
反
収
发
叔
取
受
变
叙
叛
叟
叠
叡
叢
口
古
句
另
叩
只
叫
召
叭
叮
可
台
叱
史
右
叶
号
司
叹
叽
吁
吃
各
合
吉
吊
同
名
后
吏
吐
向
吒
吓
吔
吕
吖
吗
吘
君
吝
吞
吟
吠
否
吧
吨
吩
含
听
启
吳
吴
吵
吶
吸
吹
吻
吼
吽
吾
呀
呂
呃
呆
呈
呉
告
呐
呑
呗
员
呜
呟
呢
呦
周
呪
味
呵
呸
呻
呼
命
咀
咆
咊
咋
和
咎
咏
咐
咒
咔
咕
咖
咗
咘
咚
咢
咤
咧
咨
咩
咪
咫
咬
咯
咱
咲
咸
咻
咽
咾
咿
哀
品
哄
哆
哇
哈
哉
哋
响
哎
哑
哒
哗
哙
哞
員
哢
哣
哤
哥
哦
哨
哩
哪
哭
哮
哰
哲
哺
哼
哽
唄
唆
唇
唉
唐
唔
唛
唢
唤
唥
唫
唬
售
唯
唱
唵
唸
唾
啄
商
啉
啊
問
啓
啚
啜
啞
啟
啡
啤
啥
啦
啪
啫
啬
啮
啰
啱
啶
啸
喀
喂
喃
善
喆
喇
喉
喊
喋
喏
喔
喘
喙
喚
喜
喝
喟
喧
喩
喪
喫
喬
單
喰
喱
喲
喵
営
喷
喻
喽
喾
嗎
嗑
嗒
嗔
嗚
嗜
嗟
嗡
嗣
嗤
嗨
嗪
嗭
嗮
嗯
嗲
嗳
嗷
嘅
嘆
嘉
嘎
嘔
嘗
嘘
嘛
嘟
嘢
嘣
嘩
嘰
嘲
嘴
嘻
嘿
噁
噂
噌
噍
噎
噓
噗
噛
噜
噠
噢
器
噪
噫
噬
噴
噵
噶
噹
嚕
嚣
嚳
嚴
嚼
囁
囃
囉
囊
囍
囗
囚
四
回
因
囡
团
団
囧
园
囮
困
囲
図
围
固
国
图
圃
圆
圈
圉
國
圍
圏
園
圓
圖
團
土
圣
圧
在
圭
地
圳
圸
场
圻
圾
址
坂
均
坊
坎
坏
坐
坑
块
坚
坛
坝
坞
坟
坠
坡
坤
坦
坪
坷
垂
垃
垄
型
垒
垓
垕
垛
垢
垣
垫
埃
埈
埋
城
埑
埒
埔
埕
埜
域
埠
埤
埴
埵
執
培
基
埼
堀
堂
堅
堆
堕
堛
堡
堤
堪
堯
堰
報
場
堵
堷
堺
塀
塊
塌
塑
塔
塗
塘
塚
塞
塢
塩
填
塵
塾
境
墅
墉
墓
増
墙
墜
增
墟
墨
墳
墾
壁
壅
壇
壊
壌
壓
壘
壞
壟
壢
壤
壩
士
壬
壮
壯
声
壱
売
壳
壶
壹
壺
壽
夀
夂
处
备
夈
変
复
夏
夐
夔
夕
外
多
夜
够
夠
夢
夥
大
天
太
夫
夭
央
夯
失
夲
头
夷
夸
夹
夺
夾
奂
奄
奇
奈
奉
奋
奎
奏
契
奔
奕
奖
套
奘
奚
奡
奢
奥
奧
奨
奩
奪
奬
奭
奮
奰
女
奴
奶
奸
她
好
妁
如
妃
妄
妆
妇
妈
妊
妍
妒
妓
妖
妗
妘
妙
妝
妞
妣
妤
妥
妫
妬
妮
妲
妳
妹
妺
妻
妾
姆
姉
姊
始
姍
姐
姑
姒
姓
委
姗
姚
姜
姝
姣
姥
姦
姨
姪
姫
姬
姮
姰
姵
姻
姿
威
娃
娄
娅
娇
娈
娘
娛
娜
娟
娠
娣
娥
娩
娮
娱
娲
娴
娶
娸
娼
婁
婄
婆
婉
婊
婐
婕
婖
婚
婦
婧
婪
婭
婴
婵
婶
婷
婿
媃
媌
媒
媔
媚
媛
媧
媯
媲
媳
媺
媽
嫁
嫂
嫉
嫌
嫔
嫖
嫗
嫘
嫚
嫡
嫣
嫦
嫩
嫪
嫫
嫲
嫺
嫻
嬅
嬉
嬋
嬌
嬗
嬛
嬢
嬤
嬪
嬰
嬲
嬴
嬿
孁
孃
子
孔
孕
孖
字
存
孙
孚
孛
孜
孝
孟
季
孤
学
孩
孪
孫
孰
孳
孵
學
孺
孽
宀
宁
它
宅
宇
守
安
宋
完
宍
宏
宕
宗
官
宙
定
宛
宜
宝
实
実
宠
审
客
宣
室
宥
宦
宪
宫
宮
宰
害
宴
宵
家
容
宽
宾
宿
寂
寄
寅
密
寇
富
寐
寒
寓
寘
寛
寝
寞
察
寡
寢
寤
實
寧
寨
審
寫
寬
寮
寳
寵
寶
寸
对
寺
寻
导
対
寿
封
専
射
将
將
專
尉
尊
尋
對
導
小
少
尒
尓
尔
尖
尘
尚
尝
尢
尣
尤
尧
尪
尫
尬
就
尴
尷
尸
尹
尺
尻
尼
尽
尾
尿
局
屁
层
屄
居
屆
屈
届
屋
屌
屍
屎
屏
屑
屓
展
属
屠
層
履
屬
屭
屮
屯
山
屹
屿
岁
岂
岐
岑
岗
岚
岛
岡
岩
岬
岭
岱
岳
岸
岺
峄
峇
峙
峠
峡
峥
峦
峨
峭
峯
峰
峴
島
峻
峽
崁
崇
崋
崎
崑
崔
崖
崗
崙
崢
崤
崧
崩
崴
崽
嵋
嵌
嵐
嵩
嵬
嵯
嶋
嶙
嶝
嶸
嶺
嶼
嶽
巅
巌
巍
巒
巔
巖
巗
川
州
巡
巢
巣
工
左
巧
巨
巩
巫
差
己
已
巳
巴
巷
巻
巽
巾
巿
币
市
布
帅
帆
师
希
帐
帕
帖
帘
帚
帛
帜
帝
帥
带
師
席
帮
帯
帰
帳
帶
帷
常
帽
幂
幅
幌
幔
幕
幗
幟
幡
幢
幣
幫
干
平
年
并
幸
幹
幺
幻
幼
幽
幾
广
庀
庁
広
庄
庆
庇
床
序
庐
庑
库
应
底
庖
店
庙
庚
府
庞
废
度
座
庫
庭
庵
庶
康
庸
庾
廁
廂
廃
廈
廉
廊
廓
廖
廚
廛
廟
廠
廢
廣
廩
廪
廬
廰
廳
延
廷
建
廻
廾
廿
开
弁
异
弃
弄
弈
弊
弋
弌
弍
式
弐
弑
弓
弔
引
弗
弘
弛
弟
张
弢
弥
弦
弧
弩
弭
弯
弱
張
強
弹
强
弼
弾
彅
彈
彌
彎
归
当
录
彗
彙
彜
彝
彡
形
彣
彤
彥
彦
彧
彩
彪
彫
彬
彭
彰
影
彳
彷
役
彻
彼
往
征
徂
径
待
很
徊
律
後
徐
徑
徒
従
得
從
徠
御
徨
復
循
徬
徭
微
徳
徴
徵
德
徹
徽
心
忄
必
忆
忊
忋
忌
忍
忏
忒
志
忘
忙
応
忝
忠
忧
快
念
忻
忽
忿
怀
态
怂
怎
怒
怕
怖
怘
怜
思
怠
怡
急
怦
性
怨
怪
怯
怵
总
怼
恆
恈
恋
恐
恒
恔
恕
恙
恚
恜
恟
恠
恢
恣
恥
恨
恩
恪
恬
恭
息
恰
恳
恵
恶
恺
恼
悄
悅
悉
悌
悍
悎
悔
悖
悝
悟
悠
患
悦
悧
您
悩
悪
悬
悯
悰
悲
悴
悶
悼
情
惇
惊
惑
惕
惚
惜
惟
惠
惡
惣
惦
惧
惨
惩
惮
惯
惰
惱
想
惶
惹
惺
惻
愀
愁
愈
愉
意
愔
愕
愚
愛
感
愤
愧
愬
愷
愼
愿
慄
慈
慉
態
慌
慎
慕
慘
慚
慞
慠
慡
慢
慣
慧
慨
慭
慮
慰
慳
慴
慶
慷
慹
慺
憁
憂
憎
憐
憑
憤
憧
憨
憩
憬
憭
憮
憲
憶
憾
懂
懇
懈
應
懋
懐
懒
懲
懶
懷
懸
懺
懼
懿
戀
戈
戊
戌
戍
戎
戏
成
我
戒
或
战
戚
戛
戟
戡
戣
戦
戩
截
戮
戯
戰
戲
戳
戴
戶
户
戸
戻
房
所
扁
扂
扇
扈
扉
手
扌
才
扎
扐
扑
扒
打
扔
払
托
扚
扛
扞
扣
执
扩
扫
扬
扯
扰
扱
扶
批
找
承
技
抄
把
抋
抌
抑
抒
抓
投
抖
抗
折
抚
抛
抜
択
抟
抠
抢
抣
护
报
抩
披
抬
抯
抰
抱
抵
抹
押
抽
拂
担
拆
拇
拉
拋
拌
拍
拏
拐
拒
拓
拔
拖
拗
拘
拙
招
拜
拝
拟
拠
拡
拢
拥
拧
拨
择
括
拭
拯
拱
拳
拵
拶
拷
拻
拼
拾
拿
持
挂
指
按
挑
挖
挙
挚
挛
挞
挟
挠
挡
挣
挤
挥
挨
挪
振
挺
挽
挿
捂
捅
捉
捋
捌
捍
捏
捐
捕
捗
捜
捞
损
捡
换
捣
捧
捨
捩
据
捲
捶
捷
捺
捻
掃
授
掉
掌
排
掕
掖
掘
掙
掛
掠
採
探
接
控
推
掩
措
掬
掰
掲
掳
掴
掷
掸
掻
揂
揃
揅
揆
揇
揈
揉
揌
揎
描
提
揑
插
揔
揕
揖
揗
揚
換
揜
揝
揟
握
揢
揪
揭
揮
揳
援
揵
揹
揺
揼
揾
搁
搂
搃
搅
搆
搈
搊
損
搒
搓
搖
搗
搜
搞
搢
搬
搭
搵
搶
携
搾
摂
摄
摆
摇
摊
摑
摒
摔
摘
摧
摩
摫
摯
摶
摸
摺
撃
撄
撅
撇
撈
撒
撓
撕
撚
撝
撞
撤
撥
撩
撫
撬
播
撮
撰
撲
撴
撸
撼
擁
擂
擇
擊
操
擎
擒
擔
據
擜
擢
擦
擨
擩
擬
擯
擱
擲
擴
擷
擺
攀
攊
攋
攎
攏
攗
攝
攢
攤
攫
支
攵
收
改
攻
放
政
故
效
敌
敎
敏
救
敔
敕
敖
敗
敘
教
敢
散
敤
敦
敨
敬
数
敲
整
敵
敷
數
斂
文
斉
斋
斌
斎
斐
斑
斗
料
斛
斜
斡
斤
斥
斧
斩
斬
断
斯
新
斷
方
於
施
旁
旅
旋
旌
族
旒
旗
无
既
日
旦
旧
旨
早
旬
旭
旱
时
旷
旺
旻
旼
昀
昂
昆
昇
昉
昊
昌
明
昏
易
昔
昕
昙
昚
星
映
春
昧
昨
昭
是
昱
昲
昴
昵
昶
昺
昼
显
時
晃
晉
晋
晌
晏
晓
晔
晕
晖
晗
晚
晛
晝
晞
晟
晡
晢
晦
晨
晩
普
景
晰
晴
晶
智
暁
暂
暄
暇
暈
暉
暐
暑
暖
暗
暝
暢
暦
暧
暨
暪
暫
暮
暳
暴
暻
曄
曆
曇
曈
曉
曖
曙
曜
曝
曠
曦
曰
曲
曳
更
書
曹
曺
曻
曼
曽
曾
替
最
會
月
有
朋
服
朐
朔
朕
朗
朙
朚
望
朝
期
朦
朧
木
未
末
本
札
朮
术
朱
朴
朵
机
朽
朾
杀
杂
权
杆
杉
李
杏
材
村
杓
杖
杜
杞
束
杠
条
杢
杣
来
杨
杩
杫
杭
杯
杰
東
杵
杷
杼
松
板
极
构
枇
枉
析
枒
枕
林
枚
果
枝
枟
枠
枡
枢
枣
枪
枫
枭
枯
枳
架
枷
枸
柄
柋
柏
某
柑
柒
染
柔
柚
柜
柠
查
柩
柬
柯
柱
柳
柴
柵
柷
柺
査
柾
柿
栀
栄
栅
标
栈
栉
栋
栏
树
栓
栖
栗
栞
栠
校
栢
栥
株
样
核
根
格
栽
栾
栿
桀
桁
桂
桃
桅
框
案
桌
桐
桑
桓
桔
桜
桝
桡
桢
档
桥
桦
桧
桩
桮
桳
桶
梁
梅
梆
梓
梔
梗
條
梞
梟
梢
梦
梧
梨
梭
梯
械
梱
梳
梵
梶
检
棄
棉
棋
棍
棑
棒
棕
棗
棘
棚
棟
棠
棣
棧
棨
棬
森
棱
棵
棺
椁
椅
植
椎
椏
椒
検
椟
椰
椿
楂
楊
楓
楔
楕
楚
楞
楠
楢
楤
楨
楪
業
楮
楲
極
楷
楸
楼
楽
概
榄
榆
榊
榎
榔
榕
榖
榗
榛
榜
榡
榤
榨
榭
榮
榯
榴
槁
槃
槆
槉
構
槌
槍
槐
様
槙
槟
槲
槽
槿
樁
樂
樊
樋
樑
樓
樗
樘
標
樞
樟
模
樣
権
横
樫
樯
樱
樵
樹
樺
樽
橄
橋
橐
橘
橙
橛
機
橡
橫
橳
橹
檀
檄
檎
檐
檓
檔
檗
檙
檚
檜
檢
檪
檫
檬
檳
檸
檹
檻
櫂
櫃
櫓
櫛
櫥
櫻
欄
欅
權
欌
欖
欠
次
欢
欣
欤
欧
欲
欺
欽
款
歆
歇
歉
歌
歐
歓
歖
歡
止
正
此
步
武
歩
歪
歯
歲
歳
歴
歷
歸
歹
死
歼
歿
殆
殇
殉
殊
残
殍
殓
殖
殘
殡
殭
殯
殲
殳
殴
段
殷
殺
殻
殼
殽
殿
毀
毅
毊
毋
毌
母
毎
每
毐
毒
毓
比
毕
毗
毘
毙
毛
毟
毫
毬
毯
毲
毽
氏
氐
民
氓
气
気
氛
氣
氧
氨
氩
氬
水
氵
氷
永
氹
氽
氾
汀
汁
求
汇
汉
汎
汐
汕
汗
汚
汝
江
池
污
汣
汤
汨
汪
汯
汰
汲
汴
汶
決
汽
汾
沁
沂
沃
沅
沈
沉
沌
沐
沒
沓
沔
沖
沙
沚
沛
沟
没
沢
沣
沧
沪
沫
沮
沰
河
沸
油
治
沼
沽
沾
沿
況
泄
泆
泉
泊
泌
泓
法
泗
泛
泠
泡
波
泣
泥
注
泪
泫
泰
泱
泳
泵
泷
泸
泻
泼
泽
泾
洁
洄
洋
洎
洒
洗
洙
洛
洞
津
洧
洩
洪
洮
洱
洲
洸
洺
活
洽
派
流
浄
浅
浆
浇
浊
测
济
浏
浑
浒
浓
浙
浚
浜
浞
浣
浦
浩
浪
浮
浯
浴
海
浸
涂
涅
消
涉
涌
涎
涓
涔
涙
涛
涞
涟
涡
润
涨
涩
涪
涮
涯
液
涵
涸
涼
涿
淀
淄
淇
淋
淎
淏
淑
淓
淕
淗
淘
淚
淛
淜
淟
淡
淢
淣
淥
淧
淨
淩
淪
淫
淬
淭
淮
淯
深
淲
淳
淵
混
淸
淹
淺
添
淼
渀
清
渇
済
渉
渊
渋
渐
渓
渔
渕
渘
渚
減
渝
渟
渠
渡
渣
渤
渦
温
測
渭
港
渲
渴
游
渺
湄
湉
湊
湐
湖
湘
湛
湟
湡
湣
湧
湩
湪
湯
湳
湾
湿
満
溃
溅
溉
溏
源
準
溜
溝
溟
溢
溤
溥
溪
溫
溯
溱
溶
溷
溺
溾
滄
滅
滇
滉
滋
滑
滓
滔
滕
滚
滝
滞
满
滢
滤
滥
滨
滩
滯
滱
滲
滴
滵
滷
滸
滹
滽
滾
滿
漀
漁
漂
漅
漆
漉
漏
漓
演
漕
漝
漟
漠
漢
漣
漦
漨
漪
漫
漬
漱
漳
漷
漸
漾
漿
潅
潇
潑
潔
潘
潛
潜
潟
潣
潤
潦
潨
潬
潭
潮
潰
潲
潼
潾
澀
澄
澈
澍
澎
澜
澡
澤
澪
澱
澳
澶
澹
激
濁
濂
濃
濕
濛
濞
濟
濠
濡
濤
濫
濭
濮
濯
濱
濾
瀅
瀉
瀍
瀏
瀑
瀚
瀛
瀞
瀟
瀧
瀬
瀰
瀲
瀼
瀾
灉
灌
灑
灘
灣
火
灬
灭
灯
灰
灵
灶
灸
灼
災
灾
灿
炀
炁
炅
炆
炉
炊
炎
炒
炔
炕
炖
炙
炜
炟
炤
炫
炬
炭
炮
炯
炳
炸
点
為
炼
炽
烂
烈
烊
烋
烏
烘
烙
烛
烝
烟
烤
烦
烧
烨
烩
烫
热
烯
烷
烹
烽
焉
焐
焔
焕
焗
焙
焚
無
焦
焯
焰
焱
然
焼
煉
煌
煎
煒
煕
煖
煙
煜
煞
煤
煥
照
煩
煬
煮
煲
熊
熏
熔
熙
熜
熟
熨
熬
熱
熹
熾
燁
燃
燄
燈
燊
燐
燒
燕
燗
營
燠
燡
燥
燦
燧
燭
燮
燵
燼
燿
爀
爁
爆
爌
爐
爛
爠
爪
爬
爭
爰
爱
爲
爵
父
爷
爸
爹
爺
爻
爽
爾
牆
片
版
牋
牌
牒
牙
牛
牝
牟
牠
牡
牢
牦
牧
物
牯
牲
牵
牶
特
牺
牽
犀
犁
犠
犧
犨
犫
犬
犭
犯
犴
状
犹
狀
狁
狂
狄
狆
狐
狗
狙
狠
狩
独
狭
狮
狱
狴
狸
狻
狼
猊
猎
猕
猗
猛
猜
猝
猟
猠
猥
猩
猪
猫
猭
献
猴
猶
猷
猼
猿
獄
獅
獎
獏
獒
獡
獣
獨
獭
獲
獴
獵
獸
獺
獻
玁
玃
玄
率
玈
玉
王
玖
玛
玟
玠
玡
玥
玩
玫
玮
环
现
玲
玺
玻
珀
珂
珈
珉
珊
珍
珑
珞
珠
珩
珪
班
珮
珹
現
球
琅
理
琉
琊
琍
琛
琠
琢
琤
琥
琦
琨
琪
琮
琰
琲
琳
琴
琵
琶
琼
瑀
瑁
瑃
瑄
瑋
瑕
瑙
瑚
瑛
瑜
瑞
瑟
瑠
瑤
瑩
瑪
瑮
瑯
瑰
瑶
瑾
璀
璃
璇
璉
璋
璐
璓
璘
璜
璞
璟
璡
璦
璧
璨
璩
璬
璯
環
璱
璳
璴
璵
璻
璽
瓈
瓊
瓋
瓏
瓘
瓜
瓢
瓣
瓦
瓶
瓷
瓸
甄
甕
甘
甚
甜
生
產
産
甥
甦
用
甩
甫
甯
田
由
甲
申
电
甶
男
甸
町
画
畂
畅
畊
界
畏
畐
畑
畔
留
畜
畝
畢
略
番
畫
異
畲
畳
畴
當
畿
疆
疇
疊
疋
疎
疏
疑
疒
疗
疚
疤
疥
疫
疯
疲
疵
疹
疼
疾
病
症
痉
痒
痕
痘
痛
痞
痢
痣
痥
痧
痩
痪
痰
痴
痹
痺
痿
瘁
瘋
瘍
瘟
瘤
瘦
瘫
瘸
瘾
癀
療
癌
癒
癖
癘
癞
癡
癣
癫
癮
癲
癸
発
登
發
白
百
皂
的
皆
皇
皈
皋
皎
皐
皓
皙
皮
皰
皱
皺
皿
盂
盃
盆
盈
益
盐
监
盒
盔
盖
盗
盘
盛
盜
盝
盟
盡
監
盤
盥
盧
盪
目
盯
盱
盲
直
相
盻
盼
盾
省
眈
眉
看
県
眞
真
眠
眥
眩
眶
眷
眸
眺
眼
眾
着
睁
睇
睏
睚
睛
睡
睢
督
睦
睭
睹
睿
瞍
瞎
瞑
瞒
瞞
瞧
瞩
瞪
瞬
瞭
瞳
瞻
瞽
瞿
矍
矚
矛
矜
矢
矣
知
矩
矫
短
矮
矯
石
矶
矸
矿
码
砂
砍
研
砕
砚
砥
砦
砧
砩
砭
砲
破
砵
砺
础
硃
硅
硐
硕
硝
硩
硬
确
硯
碁
碇
碌
碍
碎
碏
碑
碗
碟
碣
碧
碩
碰
碱
碳
確
碼
碾
磁
磅
磊
磐
磔
磕
磚
磡
磨
磬
磯
磷
磾
礁
礎
礙
礦
礪
礫
示
礻
礼
社
礿
祀
祁
祂
祇
祈
祉
祊
祎
祐
祓
祔
祕
祖
祗
祘
祛
祜
祝
神
祟
祠
祢
祥
票
祫
祭
祯
祴
祷
祸
祺
祿
禀
禁
禄
禅
禇
禊
禍
禎
福
禕
禘
禟
禦
禧
禪
禮
禰
禱
禴
禹
禺
离
禽
禾
禿
秀
私
秃
秉
秋
种
科
秒
秘
租
秤
秦
秧
秩
秫
秭
积
称
移
秽
稀
稅
稈
程
稍
税
稚
稜
稟
稣
種
稱
稲
稳
稷
稻
稼
稽
稿
穀
穂
穆
穌
積
穎
穏
穗
穢
穩
穫
穰
穴
究
穷
穹
空
穿
突
窄
窍
窑
窒
窓
窖
窗
窘
窝
窟
窣
窦
窩
窪
窮
窯
窶
窺
窿
竄
竇
竈
竊
立
竏
竑
竕
竖
站
竜
竞
竟
章
竣
童
竦
竪
竭
端
竲
競
竹
竺
竽
竿
笃
笄
笆
笈
笋
笏
笑
笒
笔
笕
笘
笙
笛
笠
笥
符
笨
第
笮
笹
笺
笼
筅
筆
等
筊
筋
筌
筍
筏
筑
筒
答
策
筝
筠
筥
筱
筲
筴
筶
筷
筹
筽
签
简
箇
箏
箒
箔
箕
算
箜
箝
箟
管
箩
箪
箫
箭
箱
箴
箸
節
範
篆
篇
築
篌
篝
篠
篡
篤
篭
篮
篯
篷
簒
簡
簫
簭
簱
簽
簾
簿
籀
籁
籃
籄
籍
籐
籙
籛
籠
籤
籥
籲
米
籴
类
籽
粄
粉
粋
粑
粒
粕
粗
粘
粝
粟
粢
粤
粥
粧
粪
粮
粱
粳
粵
粹
粽
精
粿
糊
糍
糒
糕
糖
糙
糜
糞
糟
糠
糧
糬
糯
糰
糸
糺
系
糾
紀
紂
約
紅
紇
紊
紋
納
紐
紑
純
紗
紘
紙
級
紛
素
紡
索
紧
紫
紬
累
細
紳
紹
紺
終
絃
組
絆
絇
経
結
絕
絞
絡
絢
給
絪
絮
統
絲
絵
絶
經
継
続
綜
綠
綢
綦
綫
維
綰
綱
網
綴
綷
綸
綺
綻
綾
綿
緇
緈
緊
緋
総
緑
緒
線
緝
締
緣
緦
編
緩
緬
緯
練
緹
緻
緼
縁
縄
縈
縉
縋
縏
縛
縣
縤
縦
縫
縮
縱
縷
總
績
繁
繆
繇
繋
繍
織
繕
繚
繝
繡
繧
繩
繪
繫
繭
繰
繳
繶
繹
繼
纂
纈
續
纏
纕
纠
红
纣
纤
纥
约
级
纪
纬
纯
纱
纲
纳
纵
纶
纸
纹
纺
纽
线
绂
练
组
绅
细
织
终
绊
绍
绎
经
绑
绒
结
绕
绘
给
绚
络
绝
绞
统
绢
绣
继
绩
绪
绫
续
绮
绯
绰
绳
维
绵
绸
综
绽
绿
缁
缃
缆
缇
缉
缌
缓
缕
编
缘
缙
缚
缝
缠
缢
缤
缩
缪
缬
缭
缯
缴
缶
缸
缺
罐
网
罒
罔
罕
罗
罘
罚
罠
罡
罢
罩
罪
置
罰
署
罴
罵
罷
罾
羂
羅
羈
羊
羋
羌
美
羐
羑
羔
羗
羚
羞
羡
群
羨
義
羫
羯
羲
羹
羽
羿
翁
翅
翇
翊
翌
翎
翏
習
翔
翕
翘
翟
翠
翡
翦
翫
翰
翱
翳
翹
翻
翼
耀
老
耂
考
者
耆
耈
而
耍
耎
耐
耕
耗
耘
耙
耥
耦
耳
耶
耻
耽
耿
聂
聃
聆
聊
聋
职
聎
聒
联
聖
聘
聚
聞
聡
聪
聯
聰
聲
聴
聶
職
聺
聼
聽
聾
聿
肃
肅
肆
肇
肉
肋
肌
肏
肓
肕
肖
肘
肚
肛
肝
肠
股
肢
肤
肥
肩
肪
肯
育
肴
肸
肺
肾
胁
胃
胄
胆
背
胎
胖
胚
胜
胝
胞
胡
胤
胥
胧
胪
胭
胱
胴
胶
胸
能
脂
脅
脆
脇
脈
脉
脊
脏
脑
脗
脙
脚
脩
脫
脱
脳
脸
脽
脾
腆
腊
腋
腎
腐
腑
腔
腕
腥
腦
腫
腰
腱
腳
腸
腹
腺
腼
腾
腿
膀
膏
膑
膚
膛
膜
膝
膠
膣
膩
膳
膵
膽
膾
膿
臀
臁
臂
臉
臏
臓
臘
臚
臟
臣
臥
臧
臨
自
臭
至
致
臺
臻
臼
臾
舅
舆
與
興
舉
舊
舌
舍
舎
舒
舔
舖
舗
舛
舜
舞
舟
舢
舨
舩
航
般
舰
舵
舶
船
艇
艘
艙
艦
艨
艫
艮
良
艱
色
艳
艶
艷
艸
艹
艺
艾
艿
节
芃
芈
芋
芒
芘
芙
芜
芝
芡
芥
芦
芬
芭
芮
芯
花
芳
芷
芸
芹
芼
芽
芾
苇
苍
苏
苑
苓
苔
苗
苛
苞
苟
苣
若
苦
苧
苯
英
苳
苶
苹
苺
茂
范
茄
茅
茆
茉
茎
茔
茗
茜
茞
茧
茨
茩
茫
茯
茱
茲
茵
茶
茸
茹
荀
荃
荆
荇
草
荊
荋
荐
荒
荔
荘
荚
荟
荠
荡
荣
荧
药
荷
荸
荻
荼
莆
莇
莉
莊
莎
莒
莓
莖
莘
莞
莠
莡
莨
莪
莫
莱
莲
获
莹
莺
莽
菀
菁
菅
菇
菈
菉
菊
菌
菎
菏
菓
菖
菜
菝
菟
菠
菡
菩
菫
華
菰
菱
菲
菴
菻
菽
萃
萄
萇
萊
萌
萍
萎
萏
萝
萣
萤
营
萧
萨
萩
萬
萱
萸
落
萾
葆
葉
著
葛
葜
葡
董
葦
葩
葫
葬
葯
葱
葵
葶
葺
蒂
蒋
蒐
蒙
蒜
蒟
蒡
蒨
蒲
蒸
蒻
蒼
蒽
蒿
蓁
蓄
蓉
蓋
蓐
蓓
蓝
蓧
蓬
蓮
蓲
蓹
蔓
蔔
蔗
蔘
蔚
蔞
蔡
蔣
蔥
蔦
蔬
蔭
蔵
蔷
蔺
蔻
蔼
蔽
蕃
蕉
蕊
蕎
蕙
蕣
蕨
蕩
蕪
蕭
蕴
蕾
薄
薅
薇
薈
薊
薔
薙
薛
薦
薩
薪
薫
薬
薮
薯
薰
薷
薺
藁
藋
藍
藏
藐
藕
藝
藞
藢
藤
藥
藧
藩
藪
藹
藻
藿
蘆
蘇
蘊
蘋
蘑
蘖
蘢
蘧
蘩
蘭
蘯
蘸
蘿
虎
虏
虐
虑
虔
處
虚
虛
虜
虞
號
虢
虧
虫
虹
虺
虽
虾
蚀
蚁
蚊
蚌
蚓
蚕
蚝
蚩
蚪
蚯
蚵
蚺
蛀
蛄
蛇
蛉
蛊
蛋
蛍
蛎
蛙
蛛
蛟
蛤
蛭
蛮
蛯
蛰
蛸
蛹
蛻
蛾
蜀
蜂
蜃
蜇
蜊
蜍
蜓
蜗
蜘
蜚
蜜
蜡
蜢
蜥
蜴
蜻
蝇
蝉
蝋
蝌
蝎
蝕
蝗
蝙
蝟
蝠
蝦
蝴
蝶
蝸
螂
螃
融
螟
螢
螫
螭
螳
螺
蟀
蟄
蟆
蟇
蟋
蟒
蟜
蟠
蟬
蟲
蟷
蟹
蟻
蟾
蠅
蠍
蠎
蠔
蠖
蠛
蠟
蠡
蠢
蠣
蠱
蠶
蠹
蠻
血
衅
衆
行
衍
術
衔
街
衙
衛
衝
衞
衠
衡
衣
补
表
衫
衰
衷
衹
衽
衿
袁
袂
袈
袋
袍
袒
袖
袜
袢
被
袭
袱
袴
裁
裂
裃
装
裏
裒
裔
裕
裙
補
裝
裟
裡
裤
裪
裳
裴
裵
裸
裹
製
裾
褂
複
褐
褒
褔
褲
襄
襆
襖
襟
襠
襤
襦
襪
襲
襴
西
要
覅
覆
覇
覈
見
規
覓
視
覗
覚
覡
覧
親
観
覺
覽
觀
见
观
规
觅
视
览
觉
角
觜
觞
解
触
觯
觸
言
訂
訇
計
訊
討
訓
訕
託
記
訣
訪
設
許
訳
訴
訶
診
註
証
詁
詐
詒
詔
評
詞
詠
詢
詣
試
詩
詫
詮
詰
話
該
詳
詹
誄
誅
誇
誉
誌
認
誓
誕
誘
語
誠
誤
誥
誦
誨
說
説
読
誰
課
誼
調
諂
談
請
諏
諒
論
諜
諝
諦
諧
諭
諱
諲
諳
諷
諸
諺
諾
謀
謂
謄
謊
謎
謐
謙
講
謝
謠
謡
謫
謳
謹
證
譌
譏
識
譚
譛
譜
譞
譥
警
譬
譯
議
譲
護
譽
讀
讃
變
讐
讓
讖
讚
讠
计
订
讣
认
讨
让
讪
训
议
讯
记
讲
讳
讶
讷
许
论
设
访
诀
证
诃
评
识
诈
诉
诊
诌
词
诎
译
试
诗
诘
诚
诛
话
诞
诠
诡
询
该
详
语
误
诰
诱
诲
说
诵
诶
请
诸
诺
读
课
谁
调
谄
谅
谈
谊
谋
谌
谍
谎
谏
谐
谓
谖
谘
谙
谚
谛
谜
谟
谡
谢
谣
谦
谧
谨
谩
谪
谬
谭
谱
谷
豁
豆
豇
豈
豊
豌
豎
豐
豕
豚
豟
象
豢
豪
豫
豬
豹
豺
貂
貅
貉
貊
貌
貍
貓
貔
貘
貙
貝
貞
負
財
貢
貧
貨
販
貪
貫
責
貯
貰
貳
貴
貶
買
貸
費
貼
貽
貿
賀
賁
賂
賃
賄
資
賈
賊
賑
賓
賛
賜
賞
賠
賢
賣
賤
賦
質
賬
賭
賰
賱
賲
賳
賴
賵
賷
賺
購
賽
贄
贅
贈
贊
贏
贔
贖
贛
贝
贞
负
贡
财
责
贤
败
账
货
质
贩
贪
贫
购
贯
贰
贱
贲
贴
贵
贷
贸
费
贺
贼
贾
赁
资
赋
赌
赎
赏
赐
赔
赖
赚
赛
赞
赟
赠
赢
赣
赤
赦
赧
赫
走
赴
赵
赶
起
赽
趁
超
越
趋
趕
趙
趟
趣
趨
足
趴
趺
趾
跃
跆
跋
跌
跏
跑
跛
距
跟
跡
跨
跪
路
跳
践
踊
踏
踐
踘
踝
踞
踢
踩
踪
踭
踵
踹
蹄
蹇
蹈
蹟
蹦
蹬
蹲
蹴
蹻
躍
躓
躡
身
躬
躯
躰
躲
躺
躾
車
軌
軍
軒
軟
転
軫
軸
軻
軼
軽
軾
較
輅
載
輋
輌
輔
輕
輛
輝
輩
輪
輯
輸
輿
轁
轄
轅
轆
轉
轍
轎
轟
轢
轤
车
轨
轩
转
轮
软
轰
轲
轳
轴
轸
轻
轼
载
较
辅
辆
辈
辉
辊
辍
辑
输
辕
辖
辘
辙
辛
辜
辞
辟
辣
辦
辨
辩
辫
辭
辯
辰
辱
農
辵
辶
边
辺
辻
込
辽
达
辿
迁
迂
迄
迅
过
迈
迎
运
近
返
还
这
迚
进
远
违
连
迟
迦
迪
迫
迭
述
迴
迷
迸
迹
追
退
送
适
逃
逅
逆
选
逊
逍
透
逐
递
途
逕
逖
逗
這
通
逝
逞
速
造
逢
連
逮
逯
週
進
逵
逸
逻
逼
遁
遂
遅
遇
遊
運
遍
過
遐
道
達
違
遗
遙
遜
遞
遠
遣
遥
適
遭
遮
遱
遲
遴
遵
遶
遷
選
遺
遼
遽
遾
避
邀
邁
邂
邃
還
邅
邈
邉
邊
邏
邑
邓
邕
邗
邘
邢
那
邦
邨
邪
邮
邯
邰
邱
邳
邵
邸
邹
邻
邾
郁
郊
郎
郏
郑
郝
郞
郡
郢
郦
郧
部
郫
郭
郵
郷
郸
都
鄂
鄉
鄋
鄒
鄔
鄙
鄢
鄧
鄫
鄭
鄰
鄹
鄺
酃
酆
酈
酉
酋
酌
配
酎
酏
酒
酔
酢
酥
酪
酬
酮
酱
酵
酷
酸
醂
醇
醉
醋
醍
醐
醒
醜
醡
醤
醪
醫
醬
醮
醯
醶
醸
釀
采
釈
释
釋
里
重
野
量
釐
金
釗
釘
釜
針
釣
釦
釧
釵
鈍
鈐
鈔
鈕
鈜
鈞
鈥
鈧
鈩
鈴
鈷
鈺
鈾
鉀
鉁
鉄
鉅
鉈
鉉
鉛
鉞
鉢
鉤
鉦
鉯
鉱
鉴
鉾
銀
銃
銅
銆
銇
銈
銉
銑
銘
銫
銭
銮
銳
銷
銻
銼
鋁
鋒
鋨
鋪
鋮
鋳
鋸
鋼
錄
錐
錕
錚
錠
錡
錢
錦
錫
錬
錯
録
鍊
鍋
鍍
鍔
鍘
鍛
鍧
鍮
鍵
鍾
鎂
鎌
鎔
鎖
鎢
鎧
鎬
鎭
鎮
鎳
鎵
鎹
鎼
鏁
鏈
鏉
鏑
鏗
鏘
鏝
鏞
鏡
鏢
鐔
鐘
鐡
鐨
鐮
鐳
鐵
鐸
鐿
鑊
鑌
鑑
鑒
鑠
鑣
鑫
鑰
鑱
鑷
鑼
鑽
鑾
钄
钅
针
钉
钓
钛
钝
钞
钟
钠
钢
钥
钦
钧
钩
钮
钰
钱
钴
钵
钻
铀
铁
铂
铃
铄
铆
铉
铎
铗
铛
铜
铠
铡
铣
铧
铨
铭
铲
铳
银
铺
链
铿
销
锁
锅
锈
锋
锌
锐
锔
锘
错
锚
锛
锜
锟
锡
锣
锦
锭
键
锯
锵
锹
锻
锽
镀
镂
镇
镉
镖
镗
镛
镜
镠
镫
镰
镳
長
长
門
閃
閉
開
閎
閏
閑
閒
間
閔
閘
閙
閟
関
閣
閤
閥
閦
閨
閩
閭
閱
閲
閳
閹
閻
閼
闆
闇
闊
闍
闔
闕
闖
闘
關
闢
门
闪
闫
闭
问
闯
闰
闲
闳
间
闵
闷
闸
闹
闺
闻
闽
闾
阀
阁
阄
阅
阆
阉
阎
阏
阔
阖
阚
阜
阝
队
阪
阭
阮
阱
防
阳
阴
阵
阶
阻
阼
阿
陀
陂
附
际
陆
陇
陈
陋
陌
降
限
陕
陘
陛
陝
陞
陡
院
陣
除
陨
险
陪
陰
陳
陵
陶
陷
陸
険
陽
隅
隆
隈
隉
隊
隋
隍
階
随
隐
隔
隕
隘
隙
際
障
隠
隣
隧
隨
險
隰
隱
隶
隷
隸
隹
隻
隼
隽
难
雀
雁
雄
雅
集
雇
雉
雌
雍
雎
雏
雑
雒
雕
雖
雙
雛
雜
雞
雠
離
難
雤
雨
雩
雪
雫
雯
雰
雲
雳
零
雷
電
雾
需
霄
霆
震
霈
霊
霍
霏
霑
霖
霜
霞
霤
霧
霭
霰
露
霸
霹
霽
靂
靄
靈
靑
青
靓
靖
静
靚
靜
非
靠
靡
面
靣
靨
革
靳
靴
靶
鞄
鞅
鞆
鞋
鞍
鞏
鞘
鞠
鞥
鞭
韈
韋
韓
韛
韜
韞
韦
韧
韩
韫
韬
音
韵
韶
韻
響
頁
頂
頃
項
順
須
頊
頌
預
頑
頒
頓
領
頡
頤
頬
頭
頰
頲
頷
頸
頹
頻
頼
顁
顆
題
額
顎
顏
顓
顔
顕
顗
願
類
顧
顯
顳
顴
页
顶
顷
项
顺
须
顼
顽
顾
顿
颀
颁
颂
预
颅
领
颇
颈
颉
颍
颎
颐
频
颖
颗
题
颙
颛
颜
额
颞
颠
颢
風
颱
飄
飆
风
飒
飘
飙
飛
飞
食
飢
飥
飨
飩
飮
飯
飲
飴
飼
飽
飾
餃
餅
養
餌
餐
餑
餓
餘
餛
餡
館
餳
饂
饅
饋
饒
饕
饗
饞
饣
饥
饨
饭
饮
饰
饱
饲
饴
饵
饶
饺
饼
饿
馀
馃
馄
馆
馈
馋
馍
馒
馔
馕
首
馗
馘
香
馥
馨
馬
馮
馱
馳
馴
駁
駄
駅
駆
駐
駒
駔
駕
駛
駝
駢
駭
駱
駿
騎
騏
騒
験
騙
騨
騫
騰
騷
驄
驅
驍
驕
驗
驚
驛
驤
驥
驩
驪
马
驭
驯
驰
驱
驴
驶
驹
驺
驻
驼
驾
骀
骁
骂
骄
骅
骆
骇
骊
验
骏
骑
骒
骗
骘
骚
骞
骠
骤
骨
骰
骸
髀
髄
髑
髒
髓
體
高
髡
髦
髪
髭
髮
髯
髳
髷
髻
鬆
鬍
鬒
鬚
鬠
鬥
鬧
鬪
鬯
鬱
鬲
鬻
鬼
魁
魂
魃
魄
魅
魉
魍
魏
魔
魚
魨
魯
魷
鮀
鮎
鮑
鮓
鮟
鮠
鮨
鮪
鮫
鮭
鮮
鯀
鯉
鯊
鯑
鯖
鯛
鯨
鯰
鯱
鯵
鯽
鰊
鰌
鰍
鰐
鰤
鰥
鰯
鰹
鰻
鰾
鱀
鱈
鱗
鱚
鱷
鱸
鱺
鱼
鱿
鲀
鲁
鲆
鲇
鲊
鲍
鲑
鲛
鲜
鲤
鲩
鲫
鲭
鲲
鲶
鲽
鳄
鳌
鳖
鳞
鳥
鳩
鳯
鳳
鳴
鳶
鴇
鴉
鴎
鴒
鴛
鴦
鴨
鴪
鴬
鴻
鴾
鴿
鵇
鵑
鵜
鵝
鵞
鵠
鵢
鵬
鵰
鵲
鵺
鶉
鶏
鶯
鶴
鶺
鷄
鷗
鷥
鷲
鷹
鷺
鸞
鸟
鸠
鸡
鸢
鸣
鸥
鸦
鸭
鸯
鸱
鸳
鸶
鸽
鸾
鸿
鹂
鹃
鹈
鹊
鹏
鹘
鹞
鹤
鹭
鹰
鹸
鹹
鹽
鹿
麋
麒
麓
麗
麝
麟
麥
麦
麩
麪
麴
麵
麸
麹
麺
麻
麼
麽
麿
黃
黄
黍
黎
黏
黑
黒
默
黙
黛
黝
點
黨
黮
黯
黻
黼
鼈
鼉
鼎
鼓
鼠
鼬
鼻
齊
齋
齐
齑
齒
齡
齢
齧
齿
龄
龍
龐
龑
龔
龕
龙
龚
龜
龟
龠
ꂅ
ꂊ
ꃪ
ꇖ
ꇳ
ꇴ
ꇶ
ꈍ
ꈬ
ꉆ
ꉬ
ꊊ
ꊏ
ꊯ
ꊰ
ꋧ
ꌕ
ꏁ
ꑋ
ꑍ
꒦
꒪
꒰
꒱
꒳
꒵
꒼
꓄
ꖴ
ꙁ
ꙑ
ꙭ
ꜙ
ꜚ
ꜛ
ꜜ
ꜝ
ꜥ
ꜰ
ꝉ
ꝩ
ꝺ
ꞃ
꞉
ꞌ
ꞵ
ꟷ
꠳
ꤰ
ꤲ
ꤷ
ꤾ
꥓
꥛
ꦃ
ꦄ
ꦅ
ꦆ
ꦇ
ꦈ
ꦉ
ꦊ
ꦋ
ꦌ
ꦍ
ꦎ
ꦏ
ꦐ
ꦑ
ꦒ
ꦓ
ꦔ
ꦕ
ꦖ
ꦗ
ꦙ
ꦚ
ꦛ
ꦝ
ꦞ
ꦟ
ꦠ
ꦡ
ꦢ
ꦣ
ꦤ
ꦥ
ꦦ
ꦧ
ꦨ
ꦩ
ꦪ
ꦫ
ꦭ
ꦮ
ꦯ
ꦱ
ꦲ
ꦴ
ꦺ
ꦻ
ꦽ
ꦾ
ꦿ
꧀
꧂
꧃
꧄
꧅
꧈
꧉
꧋
꧌
꧎
ꧏ
꧐
꧑
꧒
꧓
꧔
꧕
꧖
꧗
꧘
꧙
꧚
꧞
ꧤ
꫞
ꬴ
ꭗ
ꭥ
ꭰ
ꭱ
ꭲ
ꭵ
ꭶ
ꭷ
ꭹ
ꭺ
ꭻ
ꭼ
ꭿ
ꮂ
ꮃ
ꮄ
ꮆ
ꮇ
ꮊ
ꮋ
ꮌ
ꮍ
ꮎ
ꮐ
ꮑ
ꮒ
ꮓ
ꮕ
ꮖ
ꮙ
ꮛ
ꮜ
ꮝ
ꮠ
ꮢ
ꮣ
ꮤ
ꮥ
ꮧ
ꮨ
ꮩ
ꮪ
ꮭ
ꮮ
ꮯ
ꮲ
ꮳ
ꮶ
ꮷ
ꮹ
ꮻ
힪
힫
ퟀ
ퟒ
ퟛ
ퟪ
﨑
﨟
ﬀ
ﬁ
ﬂ
ﬃ
ﬄ
ﬅ
ﬆ
ﬠ
ﬤ
ﬦ
ﭐ
ﭑ
ﭒ
ﭓ
ﭔ
ﭕ
ﭖ
ﭗ
ﭘ
ﭙ
ﭚ
ﭛ
ﭜ
ﭝ
ﭞ
ﭟ
ﭠ
ﭡ
ﭢ
ﭣ
ﭤ
ﭥ
ﭦ
ﭧ
ﭨ
ﭩ
ﭪ
ﭫ
ﭬ
ﭭ
ﭮ
ﭯ
ﭰ
ﭱ
ﭲ
ﭳ
ﭴ
ﭵ
ﭶ
ﭷ
ﭸ
ﭹ
ﭺ
ﭻ
ﭼ
ﭽ
ﭾ
ﭿ
ﮀ
ﮁ
ﮂ
ﮃ
ﮄ
ﮅ
ﮆ
ﮇ
ﮈ
ﮉ
ﮊ
ﮋ
ﮌ
ﮍ
ﮎ
ﮏ
ﮐ
ﮑ
ﮒ
ﮓ
ﮔ
ﮕ
ﮖ
ﮗ
ﮘ
ﮙ
ﮚ
ﮛ
ﮜ
ﮝ
ﮞ
ﮟ
ﮠ
ﮡ
ﮢ
ﮣ
ﮤ
ﮥ
ﮦ
ﮧ
ﮨ
ﮩ
ﮪ
ﮫ
ﮬ
ﮭ
ﮮ
ﮯ
ﮰ
ﮱ
﮲
﮳
﮴
ﯓ
ﯔ
ﯕ
ﯖ
ﯗ
ﯘ
ﯙ
ﯚ
ﯛ
ﯜ
ﯝ
ﯞ
ﯟ
ﯠ
ﯡ
ﯢ
ﯣ
ﯤ
ﯥ
ﯦ
ﯧ
ﯨ
ﯩ
ﯪ
ﯫ
ﯬ
ﯭ
ﯮ
ﯯ
ﯰ
ﯱ
ﯲ
ﯳ
ﯴ
ﯵ
ﯶ
ﯷ
ﯸ
ﯹ
ﯺ
ﯻ
ﯼ
ﯽ
ﯾ
ﯿ
ﰀ
ﰁ
ﰂ
ﰃ
ﰄ
ﰅ
ﰆ
ﰇ
ﰈ
ﰉ
ﰊ
ﰋ
ﰌ
ﰍ
ﰎ
ﰏ
ﰐ
ﰑ
ﰒ
ﰓ
ﰔ
ﰕ
ﰖ
ﰙ
ﰱ
ﰲ
ﰷ
ﰼ
ﱀ
ﱂ
ﱃ
ﱄ
ﱐ
ﱘ
ﱞ
ﱟ
ﱠ
ﱡ
ﱢ
ﱪ
ﱭ
ﱯ
ﱰ
ﱲ
ﱴ
ﲂ
ﲆ
ﲈ
ﲎ
ﲏ
ﲑ
ﲔ
ﲝ
ﲞ
ﲟ
ﲡ
ﲢ
ﲣ
ﲤ
ﲥ
ﲧ
ﲨ
ﲪ
ﲰ
ﲺ
ﳁ
ﳉ
ﳊ
ﳋ
ﳌ
ﳍ
ﳎ
ﳏ
ﳑ
ﳓ
ﳔ
ﳕ
ﳘ
ﳚ
ﳜ
ﳝ
ﴽ
﴾
﴿
ﶆ
ﶈ
ﶼ
﷐
﷓
﷟
﷯
ﷲ
ﷴ
ﷷ
ﷸ
ﷹ
ﷺ
ﷻ
﷽
︙
︰
︱
︳
︴
︵
︶
︸
︹
︺
︻
︿
﹀
﹁
﹂
﹃
﹄
﹉
﹋
﹎
﹏
﹑
﹔
﹘
﹝
﹞
﹠
﹡
﹢
﹣
﹥
﹩
﹪
﹫
ﹰ
ﹱ
ﹲ
ﹴ
ﹶ
ﹷ
ﹸ
ﹹ
ﹺ
ﹼ
ﹽ
ﹾ
ﹿ
ﺀ
ﺁ
ﺂ
ﺃ
ﺄ
ﺅ
ﺆ
ﺇ
ﺈ
ﺉ
ﺊ
ﺋ
ﺌ
ﺍ
ﺎ
ﺏ
ﺐ
ﺑ
ﺒ
ﺓ
ﺔ
ﺕ
ﺖ
ﺗ
ﺘ
ﺙ
ﺚ
ﺛ
ﺜ
ﺝ
ﺞ
ﺟ
ﺠ
ﺡ
ﺢ
ﺣ
ﺤ
ﺥ
ﺦ
ﺧ
ﺨ
ﺩ
ﺪ
ﺫ
ﺬ
ﺭ
ﺮ
ﺯ
ﺰ
ﺱ
ﺲ
ﺳ
ﺴ
ﺵ
ﺶ
ﺷ
ﺸ
ﺹ
ﺺ
ﺻ
ﺼ
ﺽ
ﺾ
ﺿ
ﻀ
ﻁ
ﻂ
ﻃ
ﻄ
ﻅ
ﻆ
ﻇ
ﻈ
ﻉ
ﻊ
ﻋ
ﻌ
ﻍ
ﻎ
ﻏ
ﻐ
ﻑ
ﻒ
ﻓ
ﻔ
ﻕ
ﻖ
ﻗ
ﻘ
ﻙ
ﻚ
ﻛ
ﻜ
ﻝ
ﻞ
ﻟ
ﻠ
ﻡ
ﻢ
ﻣ
ﻤ
ﻥ
ﻦ
ﻧ
ﻨ
ﻩ
ﻪ
ﻫ
ﻬ
ﻭ
ﻮ
ﻯ
ﻰ
ﻱ
ﻲ
ﻳ
ﻴ
ﻵ
ﻶ
ﻷ
ﻸ
ﻹ
ﻺ
ﻻ
ﻼ
！
＂
＃
＄
％
＆
＇
（
）
＊
＋
，
－
．
／
０
１
２
３
４
５
６
７
８
９
：
；
＜
＝
＞
？
＠
［
＼
］
＾
＿
｀
ａ
ｂ
ｃ
ｄ
ｅ
ｆ
ｇ
ｈ
ｉ
ｊ
ｋ
ｌ
ｍ
ｎ
ｏ
ｐ
ｑ
ｒ
ｓ
ｔ
ｕ
ｖ
ｗ
ｘ
ｙ
ｚ
｛
｜
｝
～
｟
｠
｡
｢
｣
､
･
ｦ
ｧ
ｨ
ｩ
ｪ
ｫ
ｬ
ｭ
ｮ
ｯ
ｰ
ｱ
ｲ
ｳ
ｴ
ｵ
ｶ
ｷ
ｸ
ｹ
ｺ
ｻ
ｼ
ｽ
ｾ
ｿ
ﾀ
ﾁ
ﾂ
ﾃ
ﾄ
ﾅ
ﾆ
ﾇ
ﾈ
ﾉ
ﾊ
ﾋ
ﾌ
ﾍ
ﾎ
ﾏ
ﾐ
ﾑ
ﾒ
ﾓ
ﾔ
ﾕ
ﾖ
ﾗ
ﾘ
ﾙ
ﾚ
ﾛ
ﾜ
ﾝ
ﾞ
ﾟ
ﾠ
ﾡ
ﾣ
ﾤ
ﾥ
ﾧ
ﾨ
ﾩ
ﾪ
ﾬ
ﾮ
ﾯ
ﾰ
ﾱ
ﾴ
ﾵ
ﾷ
ﾸ
ﾺ
ﾻ
ﾼ
ￂ
ￃ
ￇ
ￊ
ￋ
ￍ
ￎ
￐
￑
ￒ
ￓ
ￕ
￠
￡
￢
￣
￤
￥
￦
￩
￫
￬
￭
￮
￰
￳
￴
￵
￶
￸
￼
￾
￿
𐂳
𐂴
𐂾
𐌚
𐌠
𐌡
𐌢
𐌰
𐌱
𐌲
𐌳
𐌶
𐌸
𐌹
𐌻
𐌽
𐌿
𐍂
𐍃
𐍄
𐍆
𐑂
𑁋
𒀀
𒀏
𒀫
𒀭
𒁀
𒁉
𒁾
𒂂
𒂆
𒂗
𒂵
𒃲
𒄀
𒄑
𒄠
𒄩
𒅁
𒅎
𒅗
𒆠
𒆤
𒆪
𒆵
𒈗
𒈦
𒈩
𒈪
𒈬
𒈾
𒉆
𒉋
𒉡
𒉺
𒊏
𒊩
𒋛
𒋻
𒋼
𒌆
𒌑
𒌓
𒌷
𒍑
𒍠
𒠨
𒠽
𒡈
𓀍
𓀎
𓀏
𓀐
𓀗
𓀘
𓀙
𓀟
𓀠
𓀡
𓀢
𓀤
𓀥
𓀩
𓀪
𓀳
𓀶
𓀺
𓁀
𓁁
𓁋
𓁖
𓁞
𓁟
𓁠
𓅓
𗁲
𗸚
𛱠
𝄪
𝐀
𝐁
𝐂
𝐃
𝐄
𝐅
𝐆
𝐇
𝐈
𝐉
𝐊
𝐋
𝐌
𝐍
𝐎
𝐏
𝐑
𝐒
𝐓
𝐔
𝐕
𝐖
𝐗
𝐘
𝐙
𝐚
𝐛
𝐜
𝐝
𝐞
𝐟
𝐠
𝐡
𝐢
𝐣
𝐤
𝐥
𝐦
𝐧
𝐨
𝐩
𝐪
𝐫
𝐬
𝐭
𝐮
𝐯
𝐰
𝐱
𝐲
𝐳
𝐴
𝐵
𝐶
𝐷
𝐸
𝐹
𝐺
𝐻
𝐼
𝐽
𝐾
𝐿
𝑀
𝑁
𝑂
𝑃
𝑄
𝑅
𝑆
𝑇
𝑈
𝑉
𝑊
𝑋
𝑌
𝑍
𝑎
𝑏
𝑐
𝑑
𝑒
𝑓
𝑔
𝑕
𝑖
𝑗
𝑘
𝑙
𝑚
𝑛
𝑜
𝑝
𝑞
𝑟
𝑠
𝑡
𝑢
𝑣
𝑤
𝑥
𝑦
𝑧
𝑨
𝑩
𝑪
𝑫
𝑬
𝑭
𝑮
𝑯
𝑰
𝑱
𝑲
𝑳
𝑴
𝑵
𝑶
𝑷
𝑸
𝑹
𝑺
𝑻
𝑼
𝑽
𝑾
𝑿
𝒀
𝒁
𝒂
𝒃
𝒄
𝒅
𝒆
𝒇
𝒈
𝒉
𝒊
𝒋
𝒌
𝒍
𝒎
𝒏
𝒐
𝒑
𝒒
𝒓
𝒔
𝒕
𝒖
𝒗
𝒘
𝒙
𝒚
𝒜
𝒟
𝒩
𝒪
𝒮
𝒯
𝒰
𝒴
𝒶
𝒷
𝒸
𝒽
𝒾
𝓀
𝓁
𝓂
𝓃
𝓇
𝓈
𝓉
𝓊
𝓋
𝓍
𝓐
𝓑
𝓒
𝓗
𝓘
𝓙
𝓛
𝓜
𝓝
𝓟
𝓢
𝓣
𝓦
𝓩
𝓪
𝓫
𝓬
𝓭
𝓮
𝓯
𝓰
𝓱
𝓲
𝓴
𝓵
𝓶
𝓷
𝓸
𝓹
𝓺
𝓻
𝓼
𝓽
𝓾
𝓿
𝔁
𝔂
𝔖
𝔞
𝔠
𝔡
𝔢
𝔤
𝔦
𝔨
𝔩
𝔪
𝔫
𝔬
𝔭
𝔯
𝔰
𝔲
𝔴
𝔸
𝔹
𝔼
𝕀
𝕂
𝕃
𝕄
𝕊
𝕌
𝕒
𝕕
𝕖
𝕗
𝕘
𝕙
𝕚
𝕜
𝕝
𝕞
𝕟
𝕣
𝕥
𝕦
𝕪
𝕱
𝕵
𝕺
𝖆
𝖈
𝖉
𝖊
𝖎
𝖑
𝖒
𝖓
𝖔
𝖗
𝖘
𝖚
𝖞
𝖠
𝖢
𝖩
𝖪
𝖭
𝖮
𝗔
𝗕
𝗖
𝗗
𝗘
𝗙
𝗚
𝗛
𝗜
𝗝
𝗞
𝗟
𝗠
𝗡
𝗢
𝗣
𝗥
𝗦
𝗧
𝗨
𝗩
𝗪
𝗫
𝗬
𝗮
𝗯
𝗰
𝗱
𝗲
𝗳
𝗴
𝗵
𝗶
𝗷
𝗸
𝗹
𝗺
𝗻
𝗼
𝗽
𝗿
𝘀
𝘁
𝘂
𝘃
𝘄
𝘅
𝘆
𝘈
𝘉
𝘎
𝘏
𝘐
𝘑
𝘒
𝘓
𝘔
𝘕
𝘖
𝘗
𝘚
𝘛
𝘠
𝘢
𝘣
𝘤
𝘥
𝘦
𝘧
𝘨
𝘩
𝘪
𝘫
𝘬
𝘭
𝘮
𝘯
𝘰
𝘱
𝘳
𝘴
𝘵
𝘶
𝘷
𝘸
𝘺
𝘻
𝘼
𝘽
𝘿
𝙀
𝙁
𝙂
𝙄
𝙅
𝙆
𝙇
𝙈
𝙉
𝙊
𝙋
𝙍
𝙎
𝙏
𝙐
𝙒
𝙖
𝙗
𝙘
𝙙
𝙚
𝙛
𝙜
𝙞
𝙟
𝙠
𝙡
𝙢
𝙣
𝙤
𝙥
𝙧
𝙨
𝙩
𝙪
𝙫
𝙬
𝙭
𝙮
𝙯
𝙰
𝚗
𝚘
𝚹
𝚺
𝚿
𝛁
𝛂
𝛃
𝛅
𝛆
𝛉
𝛌
𝛍
𝛑
𝛔
𝛥
𝛴
𝛷
𝛺
𝛼
𝛽
𝛾
𝛿
𝜀
𝜂
𝜃
𝜆
𝜇
𝜈
𝜉
𝜋
𝜌
𝜍
𝜎
𝜏
𝜑
𝜒
𝜔
𝜕
𝜙
𝜡
𝜮
𝜱
𝜲
𝜴
𝜶
𝜷
𝜸
𝜺
𝜼
𝜽
𝝀
𝝁
𝝅
𝝆
𝝈
𝝎
𝝐
𝝨
𝝰
𝝱
𝝲
𝝷
𝝺
𝞠
𝞦
𝞫
𝞴
𝞵
𝞹
𝞺
𝞼
𝟎
𝟏
𝟐
𝟑
𝟒
𝟓
𝟔
𝟕
𝟖
𝟗
𝟙
𝟚
𝟛
𝟜
𝟣
𝟪
𝟬
𝟭
𝟮
𝟯
𝟱
𝟳
𝟴
𝟵
𝟶
𝟷
𝟸
𝟹
𝟺
𝟻
𝟾
𝟿
𞆓
𞆡
𞌲
𞌳
𞌿
𞍚
𞍛
𞓳
𞟰
𞭵
🀀
🀁
🀂
🀃
🀄
🀅
🀆
🀇
🀈
🀉
🀊
🀋
🀌
🀍
🀎
🀏
🀐
🀑
🀒
🀓
🀔
🀕
🀖
🀗
🀘
🀙
🀚
🀛
🀜
🀝
🀞
🀟
🀠
🀡
🀢
🀣
🀤
🀥
🀦
🀧
🀨
🀩
🀪
🀱
🀳
🁊
🃏
🄰
🄱
🄲
🄳
🄴
🄵
🄶
🄷
🄸
🄹
🄺
🄻
🄼
🄽
🄾
🄿
🅁
🅂
🅃
🅄
🅅
🅆
🅈
🅉
🅐
🅑
🅒
🅓
🅔
🅕
🅖
🅗
🅘
🅙
🅚
🅛
🅜
🅝
🅞
🅟
🅡
🅢
🅣
🅤
🅦
🅧
🅨
🅰
🅱
🅲
🅳
🅴
🅵
🅶
🅷
🅸
🅹
🅺
🅻
🅼
🅽
🅾
🅿
🆀
🆁
🆂
🆃
🆄
🆅
🆆
🆇
🆈
🆉
🆎
🆑
🆒
🆓
🆔
🆕
🆖
🆗
🆘
🆙
🆚
🇦
🇧
🇨
🇩
🇪
🇫
🇬
🇭
🇮
🇯
🇰
🇱
🇲
🇳
🇴
🇵
🇶
🇷
🇸
🇹
🇺
🇻
🇼
🇽
🇾
🇿
🈂
🈚
🈯
🈲
🈴
🈵
🈶
🈷
🈹
🈺
🉐
🉑
🌀
🌁
🌂
🌃
🌄
🌅
🌆
🌇
🌈
🌉
🌊
🌋
🌌
🌍
🌎
🌏
🌐
🌑
🌒
🌓
🌔
🌕
🌖
🌗
🌘
🌙
🌚
🌛
🌜
🌝
🌞
🌟
🌠
🌡
🌤
🌥
🌦
🌧
🌨
🌩
🌪
🌫
🌬
🌭
🌮
🌯
🌰
🌱
🌲
🌳
🌴
🌵
🌶
🌷
🌸
🌹
🌺
🌻
🌼
🌽
🌾
🌿
🍀
🍁
🍂
🍃
🍄
🍅
🍆
🍇
🍈
🍉
🍊
🍋
🍌
🍍
🍎
🍏
🍐
🍑
🍒
🍓
🍔
🍕
🍖
🍗
🍘
🍙
🍚
🍛
🍜
🍝
🍞
🍟
🍠
🍡
🍢
🍣
🍤
🍥
🍦
🍧
🍨
🍩
🍪
🍫
🍬
🍭
🍮
🍯
🍰
🍱
🍲
🍳
🍴
🍵
🍶
🍷
🍸
🍹
🍺
🍻
🍼
🍽
🍾
🍿
🎀
🎁
🎂
🎃
🎄
🎅
🎆
🎇
🎈
🎉
🎊
🎋
🎌
🎍
🎎
🎏
🎐
🎑
🎒
🎓
🎕
🎖
🎗
🎙
🎚
🎛
🎜
🎝
🎞
🎟
🎠
🎡
🎢
🎣
🎤
🎥
🎦
🎧
🎨
🎩
🎪
🎫
🎬
🎭
🎮
🎯
🎰
🎱
🎲
🎳
🎴
🎵
🎶
🎷
🎸
🎹
🎺
🎻
🎼
🎽
🎾
🎿
🏀
🏁
🏂
🏃
🏄
🏅
🏆
🏇
🏈
🏉
🏊
🏋
🏌
🏍
🏎
🏏
🏐
🏑
🏒
🏓
🏔
🏕
🏖
🏗
🏘
🏙
🏚
🏛
🏜
🏝
🏞
🏟
🏠
🏡
🏢
🏣
🏤
🏥
🏦
🏧
🏨
🏩
🏪
🏫
🏬
🏭
🏮
🏯
🏰
🏳
🏴
🏵
🏷
🏸
🏹
🏺
🏻
🏼
🏽
🏾
🏿
🐀
🐁
🐂
🐃
🐄
🐅
🐆
🐇
🐈
🐉
🐊
🐋
🐌
🐍
🐎
🐏
🐐
🐑
🐒
🐓
🐔
🐕
🐖
🐗
🐘
🐙
🐚
🐛
🐜
🐝
🐞
🐟
🐠
🐡
🐢
🐣
🐤
🐥
🐦
🐧
🐨
🐩
🐪
🐫
🐬
🐭
🐮
🐯
🐰
🐱
🐲
🐳
🐴
🐵
🐶
🐷
🐸
🐹
🐺
🐻
🐼
🐽
🐾
🐿
👀
👁
👂
👃
👄
👅
👆
👇
👈
👉
👊
👋
👌
👍
👎
👏
👐
👑
👒
👓
👔
👕
👖
👗
👘
👙
👚
👛
👜
👝
👞
👟
👠
👡
👢
👣
👤
👥
👦
👧
👨
👩
👪
👫
👬
👭
👮
👯
👰
👱
👲
👳
👴
👵
👶
👷
👸
👹
👺
👻
👼
👽
👾
👿
💀
💁
💂
💃
💄
💅
💆
💇
💈
💉
💊
💋
💌
💍
💎
💏
💐
💑
💒
💓
💔
💕
💖
💗
💘
💙
💚
💛
💜
💝
💞
💟
💠
💡
💢
💣
💤
💥
💦
💧
💨
💩
💪
💫
💬
💭
💮
💯
💰
💱
💲
💳
💴
💵
💶
💷
💸
💹
💺
💻
💼
💽
💾
💿
📀
📁
📂
📃
📄
📅
📆
📇
📈
📉
📊
📋
📌
📍
📎
📏
📐
📑
📒
📓
📔
📕
📖
📗
📘
📙
📚
📛
📜
📝
📞
📟
📠
📡
📢
📣
📤
📥
📦
📧
📨
📩
📪
📫
📬
📭
📮
📯
📰
📱
📲
📳
📴
📵
📶
📷
📸
📹
📺
📻
📼
📽
📿
🔀
🔁
🔂
🔃
🔄
🔅
🔆
🔇
🔈
🔉
🔊
🔋
🔌
🔍
🔎
🔏
🔐
🔑
🔒
🔓
🔔
🔕
🔖
🔗
🔘
🔙
🔚
🔛
🔜
🔝
🔞
🔟
🔠
🔡
🔢
🔣
🔤
🔥
🔦
🔧
🔨
🔩
🔪
🔫
🔬
🔭
🔮
🔯
🔰
🔱
🔲
🔳
🔴
🔵
🔶
🔷
🔸
🔹
🔺
🔻
🔼
🔽
🕁
🕆
🕇
🕉
🕊
🕋
🕌
🕍
🕎
🕐
🕑
🕒
🕓
🕔
🕕
🕖
🕗
🕘
🕙
🕚
🕛
🕜
🕝
🕞
🕟
🕠
🕡
🕢
🕣
🕤
🕥
🕦
🕧
🕪
🕬
🕭
🕮
🕯
🕰
🕳
🕴
🕵
🕶
🕷
🕸
🕹
🕺
🖇
🖈
🖊
🖋
🖌
🖍
🖎
🖏
🖐
🖑
🖒
🖓
🖔
🖕
🖖
🖤
🖥
🖨
🖯
🖰
🖱
🖲
🖳
🖵
🖼
🗂
🗃
🗄
🗑
🗒
🗓
🗜
🗝
🗞
🗡
🗢
🗣
🗨
🗭
🗯
🗳
🗹
🗺
🗻
🗼
🗽
🗾
🗿
😀
😁
😂
😃
😄
😅
😆
😇
😈
😉
😊
😋
😌
😍
😎
😏
😐
😑
😒
😓
😔
😕
😖
😗
😘
😙
😚
😛
😜
😝
😞
😟
😠
😡
😢
😣
😤
😥
😦
😧
😨
😩
😪
😫
😬
😭
😮
😯
😰
😱
😲
😳
😴
😵
😶
😷
😸
😹
😺
😻
😼
😽
😾
😿
🙀
🙁
🙂
🙃
🙄
🙅
🙆
🙇
🙈
🙉
🙊
🙋
🙌
🙍
🙎
🙏
🙶
🙷
🚀
🚁
🚂
🚃
🚄
🚅
🚆
🚇
🚈
🚉
🚊
🚋
🚌
🚍
🚎
🚏
🚐
🚑
🚒
🚓
🚔
🚕
🚖
🚗
🚘
🚙
🚚
🚛
🚜
🚝
🚞
🚟
🚠
🚡
🚢
🚣
🚤
🚥
🚦
🚧
🚨
🚩
🚪
🚫
🚬
🚭
🚮
🚯
🚰
🚱
🚲
🚳
🚴
🚵
🚶
🚷
🚸
🚹
🚺
🚻
🚼
🚽
🚾
🚿
🛀
🛁
🛂
🛃
🛄
🛅
🛆
🛇
🛋
🛌
🛍
🛎
🛏
🛐
🛑
🛒
🛠
🛡
🛢
🛣
🛤
🛥
🛩
🛪
🛫
🛬
🛰
🛳
🛴
🛵
🛶
🛷
🛸
🟍
🠆
🠞
🠟
🡆
🡫
🡲
🤐
🤑
🤒
🤓
🤔
🤕
🤖
🤗
🤘
🤙
🤚
🤛
🤜
🤝
🤞
🤟
🤠
🤡
🤢
🤣
🤤
🤥
🤦
🤧
🤨
🤩
🤪
🤫
🤬
🤭
🤮
🤯
🤰
🤱
🤲
🤳
🤴
🤵
🤶
🤷
🤸
🤹
🤺
🤻
🤼
🤽
🤾
🥀
🥁
🥂
🥃
🥄
🥅
🥆
🥇
🥈
🥉
🥊
🥋
🥐
🥑
🥒
🥓
🥔
🥕
🥖
🥗
🥘
🥙
🥚
🥛
🥜
🥝
🥞
🥟
🥠
🥡
🥢
🥣
🥤
🥥
🥦
🥧
🥨
🥩
🥪
🥫
🥬
🥭
🥮
🥯
🥰
🥳
🥴
🥵
🥶
🥺
🥿
🦀
🦁
🦂
🦃
🦄
🦅
🦆
🦇
🦈
🦉
🦊
🦋
🦌
🦍
🦎
🦏
🦐
🦑
🦒
🦓
🦔
🦕
🦖
🦗
🦜
🦞
🦰
🦱
🦲
🦳
🦴
🦶
🦸
🦹
🧀
🧁
🧂
🧐
🧑
🧒
🧓
🧔
🧕
🧖
🧗
🧘
🧙
🧚
🧛
🧜
🧝
🧞
🧟
🧠
🧡
🧢
🧣
🧤
🧥
🧦
🧧
🧳
🧵
🧶
🧸
🧺
𡨸
𡰠
𡰽
𡱀
𡳞
𢐠
𢑍
𣐠
𴫸
𵑃
𵨏
𷋩
𹐠
񈠠
񉣤
񊐠
񍰠
񎧔
񎧗
񞱓
񡴡
򌐠
򐀠
򐀽
򐐽
򐑳
򐠊
򐭤
򑐠
򑠽
򓰽
򠳥
󟱍
󠴛
󤀀
󬩣
􏿿
##e
##r
##a
##t
##i
##n
##m
##s
##o
##y
##l
##k
##b
##1
##6
##5
##j
##8
##3
##w
##d
##c
##g
##0
##9
##u
##p
##h
##7
##v
##2
##😍
##😎
##f
##x
##ה
##ר
##ו
##ס
##z
##q
##ɑ
##4
##イ
##ᅳ
##ᆮ
##ᄉ
##ᆸ
##ᄂ
##ᅵ
##ᄃ
##ᅡ
##®
##😚
##🎤
##🌷
##😭
##ل
##خ
##ت
##ا
##ن
##×
##😂
##€
##œ
##😊
##😋
##⚥
##ｅ
##ー
##カ
##😜
##¬
##🚲
##🏃
##🌼
##و
##ض
##ى
##💋
##˜
##™
##🔁
##±
##ª
##ᆨ
##ᄀ
##ᅭ
##ᄋ
##ᆯ
##❓
##😘
##►
##😤
##😨
##−
##ı
##ط
##م
##ع
##ᅩ
##ㅡ
##🙏
##😇
##🌸
##ـ
##ر
##✍
##°
##²
##れ
##て
##ㅠ
##ø
##😉
##😀
##ح
##ص
##і
##🔥
##🏻
##♡
##✈
##🚢
##🇮
##🇩
##©
##💙
##¸
##в
##я
##т
##³
##æ
##ン
##テ
##ィ
##ッ
##ト
##¢
##♠
##س
##ك
##ه
##а
##ѕ
##😅
##ش
##➖
##⠀
##د
##ي
##º
##░
##😬
##🎀
##¹
##´
##ᥙ
##🏽
##🍺
##🍻
##✌
##🏼
##🇹
##ь
##🤗
##💃
##💞
##ｐ
##ｎ
##ａ
##⚖
##😪
##☺
##☆
##ز
##ج
##❌
##▌
##ע
##ל
##נ
##╟
##👰
##👸
##ᅫ
##ᆾ
##˸
##σ
##η
##˴
##😁
##→
##レ
##サ
##▷
##ف
##е
##✉
##о
##غ
##ß
##␙
##п
##л
##ｒ
##г
##ҝ
##🙈
##💕
##✨
##❤
##🤣
##🏾
##ə
##ŀ
##👹
##и
##ч
##н
##ы
##💫
##ट
##£
##👟
##👢
##🤑
##қ
##ب
##ᅢ
##ᄅ
##ᅥ
##ᆫ
##һ
##ð
##～
##─
##█
##▒
##😹
##🙌
##ﺍ
##ﻟ
##ﺠ
##ﻤ
##ﺎ
##ﻋ
##ﺔ
##¦
##💦
##🌾
##を
##く
##た
##さ
##い
##✿
##🔸
##⊱
##у
##к
##р
##з
##ﷺ
##ω
##ᅮ
##ᆷ
##ј
##💐
##ﻌ
##ﻰ
##≥
##●
##👍
##🙂
##ス
##ʊ
##🙆
##😄
##ʁ
##μ
##ν
##★
##🙃
##📵
##🍃
##ق
##ة
##🅷
##🅸
##🅽
##🅴
##б
##🙇
##♀
##β
##ρ
##ヤ
##メ
##✅
##♦
##ต
##ข
##อ
##ส
##ง
##ค
##ล
##ป
##น
##ก
##บ
##เ
##🆓
##▄
##ﻧ
##ﻮ
##ﻴ
##д
##ϲ
##♥
##😝
##⏎
##ｍ
##ｖ
##🇳
##🇪
##😢
##💊
##😱
##ی
##👌
##👆
##ᆺ
##⚤
##ﹶ
##ﻪ
##ﹸ
##や
##ء
##♻
##∫
##ᅦ
##ᆻ
##💓
##พ
##ธ
##ว
##ο
##😰
##ナ
##🛍
##📍
##👲
##α
##┴
##ⅼ
##👏
##ٱ
##￼
##💌
##ᅬ
##ث
##ǥ
##ร
##ะ
##ช
##ħ
##گ
##𝑒
##エ
##🤠
##ц
##ᅲ
##😐
##❔
##⚡
##よ
##う
##に
##ﺘ
##🚅
##🌏
##☀
##ә
##⁰
##🤤
##📿
##❗
##υ
##τ
##ς
##ɯ
##ŋ
##𝗔
##𝗦
##𝗜
##𝗖
##ᄐ
##♔
##✯
##☃
##＋
##ƒ
##⬇
##😛
##ᄇ
##ｙ
##ｉ
##😥
##ꦤ
##꧀
##ꦝ
##ꦭ
##ג
##ת
##י
##◆
##ᆽ
##ᅧ
##ᄒ
##ท
##ย
##➡
##♈
##▪
##ま
##す
##ս
##с
##м
##😔
##ˮ
##₂
##ф
##ﬁ
##⤵
##љ
##▶
##ไ
##😆
##⃣
##☝
##¯
##⟶
##↓
##👽
##☹
##🚍
##🎵
##ᆼ
##ﬂ
##👉
##🎙
##օ
##ネ
##👤
##ᄁ
##ι
##ץ
##ﯿ
##ﻞ
##⏩
##ظ
##က
##ေ
##ရ
##ြ
##႕
##ျ
##ပ
##လ
##ᅨ
##💚
##💛
##💜
##ᄆ
##🤟
##🙋
##♂
##🌈
##⏪
##΍
##ϫ
##ϭ
##ϰ
##ϐ
##θ
##δ
##ϙ
##ϒ
##ϧ
##ϖ
##ϩ
##ζ
##ϟ
##😌
##🎈
##￾
##✎
##💗
##☁
##🌞
##γ
##∈
##⏬
##🏢
##🍜
##😃
##¨
##ᄑ
##ł
##щ
##👪
##ᅣ
##ラ
##モ
##ニ
##ア
##😻
##👦
##👧
##😗
##🐴
##ハ
##シ
##フ
##ル
##λ
##ᄌ
##𝑖
##ϑ
##ᅴ
##♬
##ж
##ю
##👜
##𝙍
##𝙀
##𝙈
##𝙄
##𝙐
##│
##🌲
##🌹
##🍫
##ﻣ
##ꦧ
##ꦱ
##ꦏ
##ꦩ
##ꦮ
##ꦺ
##ꦪ
##👞
##💝
##💖
##❀
##◕
##┬
##🎊
##🎉
##🎂
##🎶
##ﻬ
##👈
##💸
##⤴
##𝑃
##ᴡ
##🏴
##🏳
##ひ
##お
##か
##ு
##ன
##😙
##ม
##௔
##௪
##௕
##௡
##ʿ
##💄
##🛣
##ﺑ
##🌿
##タ
##🤦
##😳
##🎩
##🇵
##🇯
##🤱
##ᅪ
##ﺟ
##ﺭ
##🕺
##🎼
##ⲟ
##も
##🚿
##🛀
##ﻜ
##ﺐ
##ɦ
##⎟
##⎠
##⎞
##⎜
##⎝
##⎛
##≈
##😈
##ᄄ
##◈
##🔰
##😑
##🚐
##🛩
##⭕
##µ
##👣
##ち
##つ
##き
##👻
##🌅
##💪
##👊
##✊
##ﺪ
##ﱠ
##ﺛ
##ﱢ
##ﺮ
##ک
##ﾅ
##ﺴ
##ﻐ
##ﻨ
##👇
##🎆
##🎇
##🌌
##✔
##⎯
##↩
##っ
##せ
##ょ
##ٲ
##🏛
##ᆬ
##と
##🔃
##ח
##💬
##э
##ϗ
##¾
##ﻔ
##ﺗ
##ﻢ
##ﻓ
##ा
##म
##द
##व
##ज
##ी
##◦
##🤩
##👬
##👭
##💯
##ე
##ლ
##ო
##ვ
##ნ
##უ
##რ
##ი
##½
##מ
##ㅋ
##÷
##╧
##🇨
##🇦
##リ
##ョ
##🐒
##ა
##🛫
##ڶ
##˚
##👩
##🙄
##⁄
##ۃ
##ۇ
##ذ
##➉
##🔜
##🏝
##ⲣ
##🥂
##✏
##ⴝ
##ᄎ
##║
##ク
##ξ
##の
##は
##み
##🥚
##ש
##😡
##∆
##π
##ˋ
##ۥ
##╚
##📺
##📲
##ᴺ
##ᴱ
##ᵂ
##な
##ौ
##न
##ब
##ड
##╰
##ﮓ
##ᅯ
##ﺿ
##ﻦ
##゛
##🙅
##✓
##○
##😿
##צ
##🎥
##🔝
##ｏ
##ｓ
##ら
##᧐
##４
##¤
##ウ
##ロ
##ケ
##ム
##☮
##😴
##🤙
##🦄
##㎡
##ϳ
##ャ
##ソ
##х
##ង
##ស
##ា
##គ
##រ
##🍹
##🌴
##า
##ๆ
##ማ
##ሩ
##ს
##ბ
##ქ
##⛵
##📢
##ฟ
##👋
##💼
##👨
##א
##ﻫ
##ﺒ
##ﻏ
##ב
##ק
##🎧
##🎻
##🎹
##🎷
##🎸
##📯
##🎬
##¼
##ᄏ
##♪
##ˈ
##ʝ
##ᆪ
##🎁
##ᴢ
##🦐
##ﻭ
##🥤
##˂
##ﻠ
##ﻥ
##ց
##📌
##⚔
##₉
##ہ
##٩
##╜
##ܬ
##ܘ
##ܢ
##ܝ
##ܐ
##😓
##💩
##ㅎ
##ᴮ
##ז
##🌆
##🌛
##る
##む
##∘
##🏕
##ᇂ
##❥
##🥔
##🍳
##🐞
##🎎
##し
##🖕
##👁
##ш
##💑
##ৡ
##ᆭ
##🇸
##∇
##✧
##↕
##📬
##こ
##ん
##🚘
##👑
##🏆
##ۦ
##🙉
##ε
##ᥱ
##∞
##ल
##स
##🧢
##ﺓ
##📶
##ʻ
##🤪
##ห
##🤚
##ɐ
##ヒ
##ヘ
##ʾ
##ˆ
##ほ
##❣
##κ
##🤓
##🎨
##ɪ
##🤰
##👥
##↙
##👎
##🔙
##⚠
##═
##🕌
##◘
##◀
##ﻛ
##แ
##ด
##٠
##╨
##ﺄ
##ﻚ
##🥁
##👀
##င
##ႇ
##ၼ
##ႁ
##ႃ
##ႈ
##🌨
##ㅣ
##👃
##📻
##͵
##ɾ
##🛠
##🐳
##🐋
##🐬
##🐟
##🐠
##🦈
##🐡
##🌟
##💥
##チ
##ュ
##ฮ
##⛅
##💆
##👕
##त
##क
##ᆩ
##🔛
##¥
##😞
##ᆰ
##ᅱ
##ァ
##🚚
##🤝
##☎
##🎺
##ﻘ
##₀
##😫
##ߋ
##😏
##⇓
##え
##🧑
##😮
##ﺷ
##ﻳ
##ប
##ល
##ែ
##ហ
##ម
##ि
##ग
##📷
##📚
##ﻷ
##ʒ
##ɛ
##❎
##🐰
##ﺨ
##🌬
##😲
##🧐
##ʹ
##ד
##ם
##🇰
##🇷
##🔊
##ノ
##あ
##り
##❕
##ो
##च
##⚽
##🤔
##ꦕ
##ꦥ
##👳
##ซ
##🇬
##🇲
##🇾
##🇱
##🌀
##🍎
##⚓
##｜
##ћ
##🍌
##🌋
##🐚
##🙁
##⏺
##🏫
##わ
##ゃ
##🔩
##↪
##🙊
##🔉
##🥊
##र
##ψ
##₁
##📣
##ﺱ
##コ
##🤲
##☕
##😣
##ｃ
##┐
##⚜
##φ
##🎋
##ﺣ
##פ
##セ
##👯
##⚫
##🥒
##ㅤ
##↑
##╫
##ట
##ణ
##ం
##ల
##💨
##ƙ
##ﾉ
##🎓
##ﻗ
##┌
##💉
##ⅾ
##╪
##ﺳ
##ﻼ
##ﺰ
##ƌ
##ɵ
##ͳ
##ӏ
##ƍ
##🤳
##💟
##✡
##ꟷ
##⌠
##☑
##🔒
##🔐
##⏰
##♚
##🤭
##ㄱ
##ː
##ホ
##🏹
##☄
##ܡ
##ܕ
##ܚ
##■
##┘
##💔
##ɡ
##✄
##╖
##ꦫ
##ꦨ
##√
##↨
##☠
##🤫
##📸
##ⓡ
##ⓞ
##ъ
##ផ
##ត
##ө
##≅
##♫
##✳
##ฐ
##🍲
##ʲ
##☻
##♍
##գ
##🆁
##🅻
##🆂
##╓
##😵
##１
##０
##➔
##☭
##ĳ
##🏿
##💁
##✋
##キ
##🚁
##😷
##ʌ
##◼
##🐐
##🐑
##🐃
##🐄
##⎩
##ھ
##🏡
##১
##✖
##🏌
##฿
##😖
##💡
##ﻝ
##ভ
##ি
##ふ
##𝑥
##𝑏
##☣
##💰
##🔻
##📞
##📱
##🚶
##ﺲ
##😠
##🍏
##🐾
##╘
##🎄
##❛
##🍭
##ぬ
##ね
##ﺤ
##😕
##ﾙ
##⚘
##ﺧ
##📐
##⇝
##🍂
##├
##╗
##∙
##↔
##ฉ
##🌶
##♛
##ำ
##🏔
##ゅ
##ﬀ
##⭐
##🌙
##✴
##ﺬ
##🍓
##🔵
##🚛
##👫
##ђ
##٢
##╙
##ǃ
##𝘶
##𝘵
##🍷
##👅
##🔄
##ᶲ
##ʃ
##🤷
##へ
##थ
##≤
##ﻁ
##ﻹ
##ﺹ
##👂
##💵
##✂
##💈
##＾
##⚑
##ℕ
##♣
##🍁
##🍀
##☘
##🌺
##🏵
##🔴
##ґ
##ӆ
##ｲ
##▫
##⚪
##╡
##☤
##♋
##⑿
##❞
##ᇁ
##🐣
##▀
##ェ
##❜
##🚫
##そ
##🏊
##﷓
##け
##🔷
##☼
##🇺
##ە
##ڵ
##ミ
##ర
##🐝
##🍛
##🍝
##🍚
##🥘
##🚦
##ᆿ
##💢
##ᅰ
##˱
##📹
##📽
##ﺩ
##╣
##ರ
##ಗ
##ಾ
##ನ
##ㅜ
##➙
##ೕ
##ಪ
##ಕ
##🎖
##✵
##श
##⎥
##∂
##🔓
##💎
##ㅐ
##💘
##₺
##١
##۰
##٥
##ꮛ
##ꮌ
##ꮥ
##ꮍ
##ꭿ
##📝
##👶
##🗺
##℃
##🚴
##ԁ
##ศ
##⇔
##🍯
##ษ
##จ
##ォ
##３
##❝
##ᅤ
##⊂
##🌱
##🐢
##📉
##📊
##✰
##ږ
##ˤ
##ү
##➳
##🧕
##◞
##♕
##🗿
##⛔
##˘
##ʼ
##🖐
##ᴹ
##┤
##℉
##🍒
##☪
##ﺫ
##ﻱ
##👡
##╦
##๑
##မ
##အ
##း
##ါ
##💽
##ɔ
##ʞ
##ƅ
##ह
##╒
##⌚
##🗂
##ろ
##🌫
##🔼
##ﺃ
##ﺜ
##👠
##👓
##☂
##🍰
##ਣ
##ਾ
##ਇ
##ਆ
##🍽
##ɨ
##🥕
##🕖
##╔
##ԛ
##🍕
##オ
##ᵻ
##ㅂ
##╬
##כ
##۞
##ｚ
##ɩ
##📦
##ﮫ
##₆
##ᄊ
##⊃
##ᆹ
##マ
##𝑟
##𝑎
##𝑡
##𝑚
##𝑛
##⋆
##თ
##ხ
##∠
##ｰ
##💻
##ढ
##🤧
##▨
##🇻
##🚃
##👄
##🍧
##👱
##⌣
##🔱
##⚕
##🔯
##ﷷ
##ﷸ
##📧
##ﺽ
##🥰
##🥳
##ລ
##ວ
##ງ
##ພ
##ະ
##ບ
##າ
##ｇ
##𝑦
##💍
##⋅
##ㅌ
##ⅽ
##🤐
##◾
##🍅
##❅
##ﻖ
##🍈
##🍗
##🍔
##ℎ
##𝓱
##𝓻
##𝓮
##𝓪
##𝓭
##💒
##🌵
##🧡
##🍱
##🥗
##🍘
##⇥
##🧖
##þ
##🏖
##ں
##ツ
##╤
##👾
##￣
##╛
##🥀
##ڠ
##ꭵ
##♏
##🚼
##🤘
##👚
##❶
##♲
##◙
##ﻀ
##ﺀ
##😯
##∕
##४
##🐯
##🌃
##⟱
##ⅱ
##🚩
##ﻡ
##ᇀ
##ꮢ
##🕵
##😩
##😟
##ព
##ខ
##🌎
##ഊ
##پ
##😧
##џ
##క
##స
##◎
##🐆
##め
##◄
##🔶
##➮
##╕
##📅
##🄴
##🄺
##მ
##၉
##ၿ
##🤸
##←
##🖒
##✩
##ຕ
##ໄ
##ຊ
##💺
##🛵
##🏍
##🏘
##🏠
##∟
##ஜ
##۩
##🌒
##ﹰ
##𝘢
##𝘦
##𝘳
##𝘪
##ద
##ళ
##ԯ
##╝
##χ
##ﻻ
##∩
##🇭
##🐲
##㎝
##ѵ
##ԝ
##📖
##ｧ
##ٮ
##य
##🔨
##🔧
##🚬
##⎤
##ტ
##ﺯ
##є
##🌊
##🛳
##ɓ
##☔
##😽
##ｄ
##ᄍ
##➎
##𝑠
##𝑘
##𝑜
##ﺸ
##👐
##ใ
##✪
##ณ
##🔑
##ਕ
##💀
##ﺏ
##🌍
##𝜇
##ﻲ
##☢
##🏷
##🍬
##ʷ
##ɬ
##ﺻ
##❄
##🇧
##🥈
##🚀
##␦
##🍸
##ט
##💏
##ﾰ
##ϻ
##┅
##┼
##ɧ
##ɱ
##💳
##✤
##📆
##ѡ
##➲
##🌻
##☒
##🐂
##🔬
##ˉ
##⁶
##▬
##˝
##ײ
##♨
##ﺋ
##ℓ
##া
##ই
##ক
##ন
##দ
##ﻄ
##ﺌ
##🍐
##🍇
##🍋
##▓
##โ
##⇧
##≡
##𝒓
##𝒑
##👿
##ԃ
##٤
##٧
##💣
##🔹
##💹
##ﬃ
##🄰
##🄽
##🍶
##🖤
##ᴗ
##ꈍ
##⇒
##👮
##ﺕ
##７
##９
##🚒
##ɒ
##ᵃ
##ᵈ
##ᵉ
##🐤
##ʏ
##ᴀ
##ʟ
##ᴋ
##ɴ
##ꦄ
##ꦻ
##ꦊ
##🚋
##└
##╩
##ⓕ
##ღ
##შ
##💠
##🍩
##🍨
##🐕
##🐶
##ｗ
##ϯ
##ϛ
##΃
##ﺡ
##🍡
##ڤ
##۶
##╠
##🔺
##⌡
##ী
##ণ
##ꮮ
##ᄈ
##ⁿ
##╥
##＜
##🖌
##🐜
##🐧
##℗
##𝟐
##𝟎
##＞
##➰
##🏦
##📛
##ဒ
##သ
##⛺
##𝑰
##𝒁
##𝑬
##𝑸
##⥺
##ゆ
##🆕
##⛹
##˙
##ƃ
##🎑
##ﻊ
##ﷲ
##ﻩ
##🍄
##ﺼ
##🔎
##΄
##❇
##🏅
##🍦
##😒
##📕
##📔
##🐮
##🔫
##ﺖ
##র
##য
##ে
##ϡ
##ϝ
##њ
##ɗ
##🅱
##ո
##▲
##🔌
##🏁
##ʑ
##ᵒ
##∀
##ꭰ
##ꭺ
##ꮹ
##🍴
##ɹ
##🐉
##ҋ
##ԍ
##🆄
##🅶
##↗
##␝
##📑
##စ
##ာ
##ி
##க
##ர
##ம
##ந
##ா
##ய
##💇
##🌄
##𝑂
##𝐻
##𝑞
##🐅
##ᮞ
##᮪
##ᮊ
##ᮔ
##ᮓ
##ᮒ
##ﺺ
##၀
##ᶰ
##ᶜ
##ਰ
##ਜ
##੝
##ਨ
##ｕ
##🗓
##🍖
##⎫
##🐔
##⇛
##∗
##💷
##ʽ
##ܥ
##ⓐ
##🔗
##ऐ
##👴
##👵
##ƶ
##ﱪ
##🎯
##⊆
##∪
##⊥
##ˇ
##🖖
##▐
##🤒
##💭
##ڪ
##🚧
##🅿
##🍮
##🚗
##𝐿
##🎡
##₄
##⁺
##♓
##𝑣
##∧
##ﾞ
##ｬ
##ｯ
##ｸ
##ワ
##ユ
##🇴
##ﺝ
##┗
##🍪
##﷽
##🌳
##ഈ
##🐇
##ﳊ
##ﱡ
##🍉
##♩
##👼
##ˑ
##🏤
##ራ
##ል
##త
##🆈
##🅰
##🆃
##🚌
##◡
##☯
##━
##┛
##🍟
##ﺈ
##˵
##ዙ
##⛤
##ญ
##🐱
##🐈
##💾
##⬛
##⬜
##🗯
##ሻ
##🌐
##ⓔ
##ⓝ
##ⓘ
##ⓖ
##ǝ
##ſ
##ゥ
##ך
##၁
##၅
##ƪ
##❦
##➂
##💴
##ᶹ
##♯
##🌰
##ա
##յ
##ե
##ր
##է
##ն
##ៀ
##┈
##≪
##①
##ŧ
##ĸ
##🥛
##🍤
##╢
##۷
##۵
##ʀ
##🤹
##ﮭ
##ఠ
##శ
##ػ
##🕊
##✞
##ภ
##↵
##🔪
##ǳ
##♌
##🎗
##🗻
##⛴
##⇐
##𒠽
##ﻒ
##⇦
##ƨ
##😶
##ⓜ
##ⓤ
##☏
##🎒
##۲
##۹
##٣
##ｔ
##ﻉ
##￮
##ண
##⏭
##🐓
##ख
##တ
##၃
##ｌ
##ｋ
##٦
##◯
##◇
##﷐
##📏
##ጤ
##ና
##˗
##८
##🚣
##🥦
##ڧ
##🕴
##𝑙
##🌠
##✾
##📈
##⌒
##🌥
##📓
##🧒
##📘
##📒
##🎲
##≧
##≦
##ੀ
##ப
##த
##📩
##◌
##ﹼ
##⚛
##🐵
##ʋ
##⚀
##प
##✽
##ƚ
##ɖ
##≫
##đ
##ɭ
##ɝ
##𝐸
##ヌ
##🗼
##🎏
##ಜ
##ಸ
##ಟ
##ﻈ
##∼
##ﻕ
##ﱃ
##🏯
##ถ
##∋
##◤
##⏳
##ං
##ක
##ා
##ව
##ﺂ
##□
##￢
##🚂
##🍍
##🌧
##🔽
##ぁ
##ʕ
##✑
##ɥ
##ᴼ
##🚮
##ｂ
##😼
##🙀
##🔈
##ﰑ
##⛓
##ﾂ
##🥇
##😦
##℠
##ﺥ
##➤
##💮
##ﹾ
##ಯ
##🌕
##💧
##✢
##✣
##✥
##❋
##✦
##✫
##🤽
##🏋
##🏮
##∽
##☜
##🔂
##〓
##🙎
##₪
##𝑄
##🕯
##ত
##⑻
##⏐
##ℯ
##ⓟ
##ⓠ
##ʔ
##ɲ
##ⰸ
##ⱏ
##ⰺ
##ⰽ
##ｈ
##🥋
##វ
##ណ
##ភ
##ල
##န
##ဘ
##🖲
##ﾛ
##₩
##ꦠ
##ꦴ
##ꦔ
##ꦲ
##🌁
##🕔
##🏥
##➠
##फ
##ष
##⁷
##📪
##న
##🐷
##🥖
##🥜
##🍿
##❁
##🤜
##🤛
##🎍
##🌝
##￥
##ࡡ
##ٷ
##🐼
##⁻
##🎃
##🌇
##প
##🔆
##⇩
##🍊
##🐊
##🏞
##📀
##ﾋ
##ｽ
##📤
##𝒊
##𝒅
##𝒂
##𝒌
##ؼ
##ｮ
##ः
##🎅
##ਮ
##ਿ
##ਤ
##ਸ
##ผ
##ﺾ
##ﺚ
##〡
##゜
##ℜ
##ᴴ
##ᴰ
##💱
##🛥
##ण
##ㅈ
##◊
##𝒏
##𝟏
##④
##ფ
##ᴇ
##ɢ
##ᴜ
##ʜ
##🕹
##ﳉ
##ﻯ
##լ
##ʇ
##ﯾ
##ﺞ
##🇫
##𝜔
##ശ
##ീ
##ഹ
##ാ
##യ
##േ
##❻
##┃
##ϥ
##დ
##ʦ
##📃
##⑶
##ග
##ම
##ප
##ෙ
##ර
##ອ
##ແ
##ນ
##ກ
##⁴
##🛒
##△
##🎞
##🍞
##भ
##🔔
##🌯
##☛
##㎍
##ﻑ
##🦑
##⊇
##₃
##₈
##₅
##▻
##✮
##🦋
##𝗮
##𝗻
##𝘁
##𝗲
##𝗴
##𝗶
##🧜
##𝑢
##𝑔
##📄
##ﺢ
##ˎ
##👗
##ು
##ﾝ
##🕸
##🤶
##ﻙ
##ﯼ
##ﳌ
##ぇ
##＝
##ҳ
##⬅
##ဆ
##🏰
##⏮
##ן
##℅
##🚔
##🐌
##৫
##╱
##◥
##◣
##✶
##ध
##մ
##🍣
##➕
##🐙
##ယ
##ڬ
##ڽ
##▼
##ʂ
##ℹ
##🦳
##📡
##🅳
##փ
##ի
##౽
##🅤
##🅐
##🅡
##🅝
##🅣
##🅔
##👺
##🏜
##ங
##ʍ
##┫
##┣
##🄳
##🄷
##ᮏ
##🔘
##ਗ
##🗞
##👷
##🏭
##🕷
##ף
##ₒ
##ₓ
##👝
##⛑
##𝐞
##𝐩
##𝐚
##𝐧
##𝐠
##฀
##ࡨ
##↟
##🔞
##🦁
##📜
##⚾
##🏓
##⑅
##ے
##⎣
##🏚
##ञ
##⋱
##ܓ
##ܠ
##🎴
##ꦒ
##ꦾ
##ꦡ
##ए
##🚹
##🕋
##ল
##╋
##ǀ
##👒
##ݕ
##ﺇ
##ꞌ
##ꦉ
##ꦗ
##🆗
##ᆴ
##🛁
##🐖
##ᴵ
##🦀
##𝜋
##◗
##ﻃ
##ﻇ
##ꦆ
##⊙
##🎫
##🚖
##🕕
##🚪
##⌛
##𝗙
##🇼
##🔚
##🔅
##⁵
##🍵
##🎢
##ⅹ
##♧
##🚈
##⎦
##ƿ
##ւ
##ղ
##ත
##ꦯ
##ﻂ
##💶
##મ
##દ
##ા
##વ
##ར
##ǉ
##🗣
##👘
##🏀
##♒
##🄾
##🄼
##🅂
##８
##պ
##տ
##կ
##ᆲ
##｀
##𝑑
##💅
##🔭
##😸
##✘
##🔦
##🍆
##ⓚ
##ম
##ব
##🌖
##🤨
##ㅅ
##ꭱ
##🐭
##🐿
##🏣
##ۍ
##🗃
##ኮ
##ን
##ደ
##ም
##የ
##𝟔
##ឡ
##ទ
##∨
##🦇
##〵
##ി
##ര
##✸
##💿
##ʰ
##ﹲ
##ད
##ҿ
##𝑅
##𝑇
##۸
##𝐡
##𝐭
##𝐬
##🍥
##ી
##ત
##ᆶ
##❊
##🥝
##⬆
##ꦢ
##┓
##🐸
##☐
##թ
##🐥
##🍼
##🦎
##🐍
##ʤ
##◑
##⇨
##📙
##چ
##⑩
##⣇
##ⓛ
##ⓑ
##🅾
##⅔
##⛽
##জ
##വ
##ം
##ബ
##ມ
##ສ
##ຍ
##ᴅ
##ᴏ
##ﾘ
##ﾌ
##ﾄ
##🍑
##🐏
##ㄹ
##ϱ
##ฎ
##⛱
##ƣ
##↘
##✹
##☞
##េ
##ន
##◻
##ｳ
##ｴ
##ｵ
##𝓷
##𝓼
##𝓽
##𝓰
##𝓶
##🚺
##🥪
##🐦
##ﺆ
##🥣
##𝗼
##𝘀
##▣
##˛
##𝗥
##𝗘
##𝗣
##𝗟
##𝗬
##⇉
##ﹺ
##🏸
##🏧
##ﮐ
##ѧ
##👙
##🀄
##╞
##🏬
##ட
##ძ
##🤖
##ｼ
##↖
##🧀
##╭
##ട
##പ
##👖
##ﾣ
##ﾡ
##ᴬ
##ᴷ
##ˢ
##ƥ
##ብ
##ር
##ሃ
##∑
##✗
##👛
##հ
##շ
##យ
##ៅ
##ឯ
##ዝ
##ሙ
##ረ
##ﲑ
##∝
##९
##ᵍ
##🗒
##🙍
##🔋
##💲
##②
##③
##⑤
##⑥
##⑦
##⑧
##⑨
##№
##℡
##०
##ぃ
##𝘧
##🅄
##🅁
##इ
##ಂ
##🔍
##ⓗ
##ヽ
##𝐨
##𝐤
##ﾟ
##⎼
##🌡
##🎭
##ക
##🐫
##𝐈
##𝐆
##𝐔
##𝐄
##𝐋
##ᴠ
##𝒚
##ﾠ
##ធ
##ើ
##ក
##ញ
##អ
##ដ
##🧠
##ㅇ
##ㅊ
##ㄷ
##ㅁ
##ㅍ
##🐀
##ത
##െ
##ধ
##স
##🖍
##ᴘ
##ᴛ
##🚇
##🚞
##➟
##ℍ
##ⅰ
##ର
##ଦ
##େ
##ଶ
##ୀ
##ʯ
##🤮
##ᮄ
##ᮜ
##კ
##⒁
##⛲
##ٳ
##၆
##𝑉
##🤬
##𝐦
##𝐢
##𝐜
##🌜
##▁
##⏹
##𝑕
##እ
##ግ
##ዚ
##አ
##ሔ
##න
##ﺅ
##ﾴ
##ﻎ
##ࢵ
##ࢻ
##❺
##ᶊ
##🐁
##⦁
##🏄
##🏂
##ᴍ
##ꬴ
##ⓒ
##ⓓ
##𝑨
##╮
##ஞ
##ச
##হ
##⅓
##ℑ
##⁸
##👔
##⎪
##∣
##ⓦ
##🤞
##🛬
##❆
##🌘
##🌗
##ɣ
##５
##ᏼ
##🔖
##🕧
##🤥
##⠊
##⢝
##⢞
##⡁
##ᴖ
##ℛ
##ꦿ
##⏱
##ƞ
##ғ
##⛰
##🚨
##ಲ
##ಃ
##≖
##๗
##మ
##వ
##🤢
##🤕
##ɕ
##బ
##ҁ
##ӕ
##গ
##🖋
##✒
##📠
##˨
##♤
##🖨
##𝒐
##𝒍
##𝒆
##𝒖
##🚸
##🐺
##ছ
##ﺙ
##🥢
##ᆵ
##⊕
##ƽ
##१
##ᵢ
##⡮
##ฬ
##🚻
##ҷ
##🦅
##𝘨
##ｭ
##𝓲
##𝗿
##𝘂
##ు
##ﯻ
##ቬ
##ਥ
##ⅿ
##𝘮
##ყ
##٨
##ገ
##ዳ
##ሲ
##ც
##ং
##🌚
##􏿿
##ㆍ
##ﺉ
##𝑤
##ﾗ
##ഋ
##ϣ
##🕐
##ܦ
##ॉ
##ƭ
##⑭
##ද
##ᔃ
##ᔅ
##∅
##ᬓ
##᭄
##ᬱ
##ᬭ
##ᬩ
##ᬮ
##␓
##ҫ
##𝘣
##🐎
##☧
##６
##ｘ
##જ
##હ
##𝑝
##ꦛ
##ጆ
##ຈ
##վ
##զ
##ሳ
##ｿ
##𝘯
##ǌ
##ဓ
##ခ
##႔
##▔
##🗨
##⛏
##ಷ
##ﾃ
##📰
##ԭ
##ቆ
##ጥ
##ቡ
##ⲓ
##ⲙ
##𝒄
##🔇
##ਟ
##ਡ
##ਯ
##₇
##ਪ
##ਲ
##🛌
##🤺
##🤼
##⌨
##🖼
##🍾
##┮
##💂
##▴
##📗
##ﾈ
##ｱ
##𝑓
##˶
##🆘
##🎮
##┏
##⎕
##⚏
##🔮
##০
##৭
##⏫
##ɜ
##⛄
##↴
##ҡ
##𝛽
##ʧ
##✕
##🛢
##ﲺ
##ꦚ
##ﺁ
##ݖ
##ﮑ
##𝐵
##𝐴
##ｺ
##❏
##ܒ
##˃
##❽
##🅺
##📎
##ୟ
##𝑼
##𝑵
##𝑹
##🌑
##ᵗ
##ㄥ
##➑
##⒠
##ᯗ
##ᯒ
##𝑆
##🏨
##🤯
##ல
##ை
##դ
##ʈ
##𝐌
##🐘
##ｆ
##ǂ
##ƫ
##❃
##ⓣ
##ତ
##ⓨ
##𝗗
##ꜰ
##╹
##ᴊ
##ဟ
##𝕚
##𝕟
##𝕪
##𝕒
##𝕜
##🕶
##🗑
##﹥
##ﮧ
##௬
##🥵
##͸
##🎐
##✝
##ʺ
##🐨
##ﯖ
##ﯗ
##ﯘ
##ﯙ
##ﯚ
##ට
##ස
##ߚ
##˰
##ˊ
##ഇ
##ߟ
##ነ
##ሽ
##☚
##⓯
##শ
##ꦟ
##ˌ
##ঈ
##⎭
##⎬
##⎨
##⎧
##🚤
##⻦
##🥩
##ⓢ
##🌽
##🍢
##🥠
##🌪
##ң
##ㄒ
##🚯
##ᬦ
##ᬢ
##ᬫ
##ᬗ
##ｾ
##ℂ
##␘
##≶
##🚎
##ƛ
##२
##ꭲ
##🥞
##𝐯
##𝐫
##↶
##℮
##౪
##ච
##⛪
##🍠
##ױ
##ｊ
##🥃
##🚑
##ﻵ
##ᴄ
##🥓
##ŉ
##📮
##ﻍ
##⏝
##🚕
##ထ
##ៗ
##⇢
##⇲
##🕜
##🗾
##㏊
##㎜
##ᵇ
##ᵕ
##ᵟ
##ɿ
##𝐾
##ᵀ
##♊
##ᆱ
##ʙ
##ೂ
##య
##డ
##ݐ
##௢
##🇶
##ਵ
##🆔
##▭
##ㅒ
##ㅔ
##ﭦ
##ﭧ
##ﭨ
##ﭩ
##ﭪ
##ﭫ
##ﭬ
##ﭭ
##✭
##ણ
##છ
##ો
##ડ
##✆
##⛳
##↠
##ເ
##ທ
##ໃ
##𝒔
##𝑩
##𝑷
##🄸
##ঘ
##⢥
##ಠ
##ﾜ
##ｪ
##🤡
##🧔
##🖑
##ㅏ
##ㅕ
##ㅑ
##ߑ
##ꮪ
##🄻
##🧚
##ⲭ
##￫
##∃
##▽
##ʉ
##ℋ
##🅲
##∾
##𝑺
##𝑫
##📋
##ې
##🚰
##ᅟ
##𝒃
##𝒈
##😺
##ߠ
##❖
##📟
##⎢
##⎡
##🥑
##ⓥ
##🥬
##🆆
##₰
##ច
##ƹ
##𝒘
##🏉
##ဥ
##ሰ
##ያ
##ት
##♭
##∏
##🌤
##ﱐ
##𝒕
##▿
##उ
##ﾍ
##🏩
##ͷ
##ཛ
##མ
##ས
##📼
##˯
##മ
##𝐶
##📨
##🧗
##☰
##🧥
##𝛾
##🐛
##⚙
##চ
##🗡
##🆒
##🦍
##ߏ
##҉
##🎠
##🏟
##🖥
##∶
##ᴶ
##📳
##🎪
##ᮧ
##𝗛
##𝗠
##ℵ
##ℊ
##റ
##ດ
##𝘤
##𝘺
##❷
##❾
##⓿
##❹
##▾
##🥥
##🌂
##ﾊ
##⚿
##வ
##ﾐ
##၇
##ඹ
##ਫ
##🗳
##გ
##🐪
##˲
##🚵
##🦃
##🛋
##🅘
##🅢
##ʓ
##⠟
##￠
##ˡ
##📂
##ؾ
##🚙
##ෂ
##ණ
##➿
##∜
##𝗺
##≒
##˟
##ҥ
##𝒉
##ﳕ
##𝜍
##⒅
##🅛
##⑫
##⑬
##⑮
##⑯
##⑰
##⑱
##⑲
##⑳
##చ
##🦱
##𝘥
##ȼ
##🥉
##ﯹ
##ﯺ
##ﯽ
##ﰀ
##ﬄ
##ꮇ
##ɚ
##ꭼ
##⋞
##ϕ
##🕗
##ջ
##ծ
##ဖ
##ヨ
##ᨚ
##ᨈ
##ᨑ
##۳
##ధ
##➢
##ﮏ
##ꮩ
##🐩
##💤
##ϼ
##𝟗
##𝟕
##ǁ
##𝐥
##￿
##˺
##ଗ
##₧
##┉
##𝐎
##𝐓
##￴
##๖
##ዓ
##ቱ
##𝐘
##𝐀
##🆙
##ﾥ
##📁
##ﲔ
##⑼
##५
##ȝ
##ড
##ও
##ဝ
##ላ
##ዬ
##ｦ
##🌔
##⇗
##ោ
##ះ
##ፈ
##🛑
##🅚
##ռ
##🎰
##ଽ
##ହ
##⅛
##∊
##𝟓
##ﻅ
##⁹
##ߘ
##԰
##ߙ
##🤴
##🦌
##🕛
##𝘬
##𝙖
##𝙧
##𝙪
##𝙣
##𝙜
##◽
##🏇
##❈
##ℏ
##ಮ
##ಬ
##𝘭
##🚜
##ᮛ
##ᮡ
##⒃
##𝘩
##🥨
##🥐
##🌮
##🥟
##⛥
##ঠ
##🥙
##ळ
##𝐮
##ฒ
##℘
##𝗽
##🚥
##ϵ
##🔢
##ﾒ
##🚉
##ʎ
##➥
##ﺊ
##ඩ
##🃏
##၄
##𝐏
##↷
##ٯ
##ﮬ
##ӌ
##ڑ
##ആ
##ഗ
##🤵
##🏎
##🛡
##ႀ
##ሉ
##ჩ
##▂
##ﾀ
##ێ
##🔀
##♢
##ﲪ
##ﲤ
##𝟑
##𝟖
##⚎
##🧘
##ﰐ
##๓
##∖
##﮳
##ɳ
##𹐠
##ট
##খ
##ᴸ
##﷯
##₋
##２
##ሼ
##ታ
##ே
##ៈ
##˭
##ҟ
##৮
##ࢭ
##ന
##🕉
##ગ
##ฏ
##∴
##ɟ
##🖊
##ല
##პ
##ਘ
##𓅓
##₽
##ള
##ᴥ
##◔
##ܣ
##ܛ
##ܪ
##΋
##⅜
##𝑀
##ￂ
##✇
##𝟒
##ɠ
##ሣ
##ሪ
##ዎ
##ች
##ႊ
##ⓩ
##╯
##ᴧ
##⚬
##ⅵ
##७
##₤
##🚊
##↲
##𝘱
##𝑐
##ℳ
##ﮱ
##﮲
##🚄
##ﮠ
##ﮡ
##⒪
##➜
##ზ
##⊚
##➧
##ය
##ឿ
##◖
##ദ
##ﯜ
##ﯝ
##ﭘ
##𝗯
##🗝
##৩
##𝙠
##𝙚
##⇚
##➨
##⅞
##ɫ
##𝐇
##𝐂
##𝐊
##𝐍
##ⅲ
##🐻
##ٹ
##ཆ
##🧙
##🧟
##↭
##↯
##ヶ
##ప
##ଜ
##۱
##𝗹
##🇿
##🅒
##🅜
##⌓
##⊰
##⊹
##ᵿ
##ໂ
##ປ
##ᇰ
##ᅙ
##ៃ
##🛄
##⌂
##𝐹
##ᬲ
##ᬄ
##ヮ
##ተ
##ቀ
##ለ
##ധ
##▅
##ｑ
##ᴉ
##ଵ
##ɤ
##♝
##♞
##♜
##ഭ
##ണ
##ƴ
##ぅ
##ƕ
##⍺
##ጉ
##ԡ
##ꦣ
##ꦽ
##𝙅
##𝙘
##𝐝
##ˣ
##ҙ
##🎦
##◓
##ؽ
##ᗪ
##ဇ
##ﺵ
##㎢
##🖇
##⇙
##ฑ
##𝘰
##𝘴
##📥
##ㆀ
##ቂ
##🕪
##छ
##꒼
##⛟
##🇽
##ٴ
##ூ
##🕑
##📇
##ｩ
##ﮀ
##ﮁ
##ﮂ
##ﮃ
##ꦑ
##ᵦ
##ﾷ
##҂
##🌓
##ଲ
##ଖ
##ା
##𝓁
##ᶖ
##ᵞ
##𝐲
##ள
##🌦
##⅟
##𝐼
##ꮲ
##ঙ
##♿
##🎌
##ዕ
##ঃ
##🐹
##⚋
##⚊
##ᶣ
##◉
##΁
##ꦓ
##ⅎ
##ጽ
##ܟ
##⏸
##ई
##🚭
##┊
##ൈ
##ﾮ
##₴
##🦰
##𝗱
##ᓂ
##ፕ
##♖
##ⁱ
##ᮝ
##ᮌ
##ꦃ
##ⅴ
##ﺶ
##િ
##ન
##શ
##ક
##ર
##🎽
##ꮯ
##🧞
##җ
##ˁ
##ҧ
##⎻
##ᮘ
##𝒎
##𝗳
##ᒪ
##ฆ
##ﱭ
##ﳍ
##ཟ
##ዶ
##🎟
##🐗
##𝐷
##ڡ
##𝗷
##𝗵
##ూ
##ﯡ
##ﯢ
##ﯣ
##ﯤ
##♐
##▸
##ਦ
##㎥
##ೃ
##ಣ
##ದ
##ၺ
##🦕
##˩
##➁
##⋯
##✐
##ℬ
##ⲩ
##ⲉ
##ⲛ
##ⲏ
##📫
##ﲨ
##ﭑ
##ዋ
##ㅗ
##␜
##𝐃
##☉
##⾍
##ꂊ
##ओ
##ང
##✚
##✜
##➘
##ජ
##☇
##ﲂ
##᾽
##ਹ
##ㇷ
##ㅉ
##၂
##ﮛ
##থ
##⦣
##ﬆ
##⧫
##🛏
##⯐
##բ
##ತ
##ಶ
##ⓙ
##జ
##஦
##┰
##గ
##ɘ
##ཏ
##꧑
##ⵓ
##ⵔ
##ⴰ
##ⴽ
##ⵛ
##😾
##𝛿
##𝜃
##૦
##⇾
##⚒
##🕘
##🚷
##ಥ
##ᵌ
##ӈ
##⏜
##🚆
##ҩ
##🔏
##ႏ
##𒉆
##𒋻
##𒊏
##ﾎ
##ﾓ
##ｫ
##𝔼
##𝕂
##𝔸
##𝕊
##𝕀
##┻
##ቃ
##┳
##￵
##￸
##￳
##ʳ
##ठ
##६
##𝓍
##𝒾
##𝒸
##𝒶
##𝓃
##🚠
##ᖇ
##ᓮ
##ᙜ
##ᙦ
##▃
##⇄
##🥧
##🦂
##ⵏ
##ⴻ
##ⵙ
##🎝
##៛
##ᵣ
##ᶠ
##𝛃
##𝐱
##ᶙ
##ଷ
##ˀ
##ژ
##ʚ
##꒦
##ҽ
##ﻆ
##𝕥
##𝕦
##𝕘
##⊗
##഑
##೙
##𝐛
##ฝ
##◐
##హ
##𝐖
##𝐑
##˖
##𝑲
##𝗕
##𝗢
##𝗡
##▇
##▆
##⛈
##❑
##❂
##ﮮ
##ﮯ
##ﮰ
##ﯓ
##ﯔ
##ჟ
##┒
##⇜
##ぉ
##⧪
##⧭
##⧬
##⬐
##⬱
##ஐ
##❉
##ഩ
##๐
##➋
##ՙ
##መ
##ዲ
##ⅷ
##₹
##ဗ
##ԧ
##ച
##ѽ
##🅼
##ဂ
##ဏ
##ជ
##🄹
##𝐉
##☡
##ኽ
##➪
##𝑧
##ܗ
##ැ
##╅
##┄
##ﬅ
##🕚
##ゐ
##ሁ
##ᮙ
##➅
##ည
##🕙
##🕦
##🛸
##ɽ
##ﾩ
##🚓
##☵
##☶
##☟
##ꤲ
##꥓
##ꤰ
##ꤾ
##￩
##々
##ﭢ
##ﭣ
##ﭤ
##ㄨ
##ㄊ
##ㄢ
##🅃
##ߊ
##🈴
##⛩
##➣
##𝙤
##𝙬
##ꮐ
##➐
##ㇵ
##⒏
##ڈ
##ᔕ
##ᘮ
##ᕈ
##ᗩ
##ᙢ
##ᘉ
##⏯
##ք
##𝑋
##ӎ
##ⲕ
##ￃ
##ﾱ
##བ
##🛶
##🛴
##ᨁ
##ᨂ
##㎞
##🕣
##ࡎ
##⦟
##ቶ
##🗽
##ℒ
##ℴ
##𝘆
##📴
##🦆
##ଳ
##𒂗
##𒆤
##🄶
##ⅻ
##ꧤ
##ᆳ
##🅟
##🅞
##🔤
##🗜
##⋰
##𝑗
##ﭼ
##✷
##⌐
##ᬵ
##ெ
##ₐ
##➗
##˾
##ȿ
##ﶼ
##𝑌
##↡
##ថ
##ܫ
##஻
##ڄ
##🎛
##𝓛
##🕇
##𝑈
##𝘄
##☾
##☽
##ﭽ
##🌭
##ﮣ
##ﮤ
##ඟ
##⋮
##ﮄ
##ﮅ
##ﮆ
##ﮇ
##ﮈ
##ৰ
##ﭹ
##♟
##ƾ
##ᴾ
##🥄
##ѱ
##ᐦ
##ᑯ
##ᒫ
##ᓇ
##ᐢ
##ᑭ
##ᕀ
##🔟
##🏪
##◠
##ᙓ
##ᔓ
##𝓹
##𝓸
##𝘫
##🚽
##ዴ
##⛾
##ዘ
##ይ
##𝘃
##❚
##🧓
##ഝ
##ཀ
##འ
##ꜝ
##ਬ
##𝐺
##ﱞ
##ຽ
##𝓾
##⋙
##𝗞
##ఫ
##១
##წ
##ѳ
##⇈
##𝗸
##࿖
##ৎ
##〇
##˅
##𝒩
##𝒟
##🔕
##ℝ
##ձ
##घ
##ﮦ
##ᐇ
##𝝀
##ɉ
##☦
##ﭒ
##ﭓ
##ﭔ
##ﭕ
##ﭖ
##ﭗ
##ﭙ
##ﭚ
##ﭛ
##⌘
##۴
##ؿ
##৳
##ٽ
##𝓺
##₦
##ⵣ
##ⵢ
##☊
##🐽
##🛰
##񞱓
##ѻ
##ཚ
##ዩ
##ૐ
##લ
##સ
##ￍ
##ㄴ
##ᵖ
##ᵜ
##♾
##ᮕ
##ᮦ
##ᴓ
##ﷻ
##ֆ
##⋁
##𝙗
##𝙨
##𝙞
##𝙟
##ㄸ
##ฤ
##ﰉ
##ｶ
##ካ
##ኤ
##⟹
##𝑻
##ﯪ
##හ
##𒆠
##΂
##ዌ
##ኒ
##🎣
##ㄣ
##ឃ
##པ
##⫪
##🎾
##ᗨ
##ᗕ
##🅉
##🅈
##બ
##ቕ
##◅
##🚝
##𝔞
##𝔯
##𝔦
##ﳋ
##➦
##ᗷ
##ಧ
##ವ
##ಳ
##❘
##ㄺ
##⏠
##⿿
##𒉋
##𒂵
##𒈩
##⇼
##⋋
##ၨ
##ഞ
##ㄧ
##ਖ
##ਚ
##ਧ
##ㄈ
##ㄙ
##উ
##ﱯ
##⠋
##ȷ
##ﯲ
##ヲ
##ﯫ
##ﯬ
##ﯭ
##🛂
##ධ
##𝒒
##ག
##➽
##ʢ
##⚰
##🎱
##◁
##ꇶ
##আ
##𝙭
##ᶺ
##ˍ
##ﾇ
##˓
##₊
##ᓾ
##⣒
##൦
##൨
##🚟
##ﲏ
##⏲
##ゝ
##ᵐ
##ⅺ
##ߩ
##🅦
##ԅ
##𝟶
##𝟷
##࡜
##ࢇ
##ㅓ
##🅙
##🅑
##ၾ
##ચ
##၈
##ҹ
##🕟
##आ
##ན
##🔲
##ټ
##⚍
##🛇
##𝑁
##ﮢ
##ፍ
##⎙
##⅝
##㊐
##㊋
##㊌
##㊍
##㊎
##㊏
##ը
##＄
##🚏
##ዜ
##𝖚
##𝖉
##𝖎
##𝖒
##𝖆
##𝖈
##𝖔
##𝐰
##🥶
##ቁ
##◟
##⅙
##🦹
##🏙
##ﭐ
##ڙ
##㊑
##㊒
##㊓
##㊔
##㊕
##㊖
##㊗
##𝙙
##🦉
##﷟
##🎚
##⨯
##׶
##ﺦ
##ﮝ
##ﮞ
##𝛷
##ኖ
##ﭸ
##ﭺ
##ﭻ
##ȶ
##ڕ
##ৱ
##🥿
##𝓜
##𝙥
##ﻶ
##ﲎ
##ゖ
##₮
##ꮖ
##ꮶ
##𝗰
##🦲
##ϸ
##𝜲
##⇣
##˥
##⚌
##🄱
##⍭
##┆
##ⴃ
##ᒇ
##∥
##ସ
##ବ
##ꦋ
##ꦈ
##ﯮ
##⑸
##ㄆ
##ㄇ
##𝘼
##✺
##⋌
##🏐
##ህ
##ঞ
##⠁
##⡽
##⢁
##╳
##╲
##ꙭ
##𝙡
##⅀
##📭
##῾
##ⅳ
##ﮘ
##🍙
##𝙮
##ㄡ
##🄿
##ᔁ
##ﯞ
##🏈
##ݢ
##➃
##🥴
##႘
##♮
##♄
##ষ
##꒪
##🎿
##𝐁
##ᵏ
##ᵧ
##ᵤ
##₱
##⌥
##𝟱
##ભ
##񍰠
##𝓂
##𝓉
##ﲡ
##𝔂
##˹
##ၽ
##➌
##ﲟ
##ﲞ
##ჰ
##🈂
##ழ
##🕠
##ｹ
##ᴿ
##🅗
##ങ
##🤾
##ฯ
##🕒
##🕓
##♉
##♎
##♑
##⛎
##ቦ
##ګ
##ܙ
##≋
##🚾
##ㄤ
##❸
##𝛂
##🦓
##🦏
##🦒
##🕤
##ﱴ
##ⅸ
##ৈ
##㎛
##ফ
##➄
##अ
##﹩
##థ
##꥛
##˄
##🚳
##🛎
##❐
##ₙ
##🈲
##⛷
##ટ
##ᨕ
##ᨄ
##᎑
##ମ
##ﻺ
##🕰
##₳
##˷
##𝛼
##↺
##ﻸ
##✱
##ऍ
##⇑
##ꮋ
##ɞ
##⚱
##ﾬ
##⤶
##⃝
##ↂ
##🥅
##ᴻ
##ᴳ
##◩
##ꮓ
##ʘ
##ړ
##ٿ
##𝑿
##ፋ
##𝔢
##𝔨
##𝔫
##𝔤
##ർ
##ൾ
##✻
##✼
##ꮎ
##𝚗
##𝚘
##𝑊
##ድ
##⽓
##ᮾ
##🚡
##𝑪
##𝑳
##බ
##⛌
##ስ
##ﾨ
##𝒙
##≚
##ๅ
##↞
##🔳
##▰
##០
##៨
##㎎
##ʅ
##╼
##╾
##ٶ
##չ
##ഘ
##๙
##⌝
##ङ
##𝐣
##ꦇ
##ው
##῅
##ຄ
##ᮚ
##ӄ
##🕥
##🛤
##ற
##꒱
##ߡ
##ᑼ
##૑
##ሌ
##🧝
##ꭥ
##🔣
##ⲃ
##🌩
##꒳
##϶
##ﰄ
##ﰅ
##ﰆ
##ۆ
##ሓ
##ඡ
##ሚ
##ጎ
##𝓵
##⋀
##ᕶ
##ᕓ
##⏟
##⏏
##🆚
##␣
##◢
##௘
##௥
##𝙩
##৯
##⑵
##🠆
##ኛ
##ឌ
##ˬ
##ⲁ
##൫
##ኔ
##∵
##𒆵
##➫
##𝐗
##ഷ
##ꮄ
##ꮒ
##ᶦ
##🆖
##ᴣ
##⢭
##⛆
##𵨏
##🏗
##🕍
##𝙉
##˳
##ᵘ
##㈹
##ʖ
##ꦦ
##ℚ
##⩼
##⒄
##🖓
##ఛ
##ൗ
##𝔁
##⛧
##⛦
##⚂
##ɰ
##˽
##𒌓
##☨
##ﭥ
##ሐ
##ڢ
##ຫ
##੐
##᮲
##᮳
##᮴
##᮵
##᮶
##᮷
##᮸
##᮹
##᮰
##🅆
##ළ
##ඳ
##𝒀
##ꜜ
##ክ
##ጅ
##𝙏
##⃞
##ྉ
##ʱ
##ၤ
##❍
##➛
##ௗ
##◪
##ਈ
##🥡
##๕
##ﰃ
##㊙
##⚐
##໱
##꠳
##⌦
##🥆
##🛐
##ଟ
##⏤
##ұ
##ᵎ
##ᡧ
##ᶨ
##𝒋
##ೖ
##ಡ
##ಹ
##✲
##≼
##ᵑ
##झ
##ၢ
##ﬠ
##ሎ
##𒅗
##𒄀
##𒈾
##㏒
##⩽
##⚄
##⚅
##ሱ
##ɮ
##భ
##𝙛
##≷
##╆
##🖔
##ⲥ
##ɂ
##₫
##㋡
##⣅
##∷
##ڨ
##˕
##೯
##೪
##೭
##🦊
##≌
##𝝅
##𝟬
##𝟳
##ꮙ
##ਠ
##ᶅ
##ନ
##ƀ
##ባ
##በ
##ﶆ
##🅨
##ପ
##ଡ
##ﹴ
##𝜈
##ˠ
##ਛ
##〆
##㏄
##৪
##🏑
##🏏
##ၚ
##ᓢ
##♰
##🆅
##🔡
##൯
##⎲
##⎵
##🆀
##𝟭
##ൽ
##ੜ
##ᠦ
##ᠳ
##ᠬ
##ᠠ
##ᠱ
##ᠢ
##ᠷ
##⌫
##⇇
##ፊ
##ឆ
##↢
##↸
##ᐤ
##𝞹
##ဉ
##ʥ
##🧣
##🧦
##ﰲ
##⑽
##🎕
##￡
##ﾵ
##ﾔ
##ʮ
##խ
##ފ
##ޔ
##🅅
##🅹
##㎏
##സ
##ﱘ
##ℇ
##ퟛ
##ቺ
##򓰽
##򐐽
##򐑳
##ܩ
##˧
##➞
##଴
##☴
##☳
##▵
##꧐
##꧘
##𝘸
##⎏
##🄵
##ﹱ
##ጋ
##ഫ
##⑹
##߿
##ឈ
##࡫
##ય
##௚
##𝑯
##ɍ
##ҏ
##𝕖
##𝕙
##𝕕
##𝕣
##⍽
##🆎
##ෑ
##៩
##ↀ
##𝒗
##❙
##ɸ
##ꭻ
##ʨ
##🧛
##𝓬
##ӡ
##ঝ
##ㄟ
##ℼ
##ﮩ
##𐌹
##𐌽
##𐍆
##𐌰
##𐌻
##𐌸
##𐍃
##𝟴
##ﾁ
##ဍ
##🅖
##ڂ
##𝘅
##⣀
##⣠
##⠇
##⠸
##⣄
##⡼
##ᯫ
##ᯕ
##ᯟ
##ᯮ
##ᯝ
##ᯉ
##᯳
##￶
##⍤
##𐌿
##𐍄
##𐍂
##𐌶
##𐌳
##𝟹
##𝟸
##𝟺
##এ
##˻
##˼
##𝑍
##ʡ
##ﯨ
##ﭞ
##ﭟ
##ﭠ
##ﭡ
##ͱ
##𗸚
##ㇸ
##❼
##ⱥ
##ﭾ
##ݧ
##⒀
##🅵
##〄
##↝
##ꭷ
##🚱
##ൻ
##ഡ
##ƺ
##ꊏ
##ճ
##ͽ
##𝐽
##ᵛ
##ᐃ
##ᓴ
##ᑉ
##ㄠ
##╏
##௫
##𝑶
##ഀ
##𝓫
##▧
##҈
##↥
##🉐
##⧳
##३
##ᒋ
##ᴲ
##꞉
##ɀ
##⩾
##ࡪ
##◝
##ᖳ
##➀
##ﰷ
##ሆ
##ຜ
##ຂ
##ᶔ
##⠦
##ዮ
##ɷ
##ᯂ
##᯲
##῀
##ㄳ
##ߐ
##ፎ
##ጭ
##ᨊ
##🌉
##🄲
##⊿
##🖱
##㋮
##℣
##ჯ
##𝓋
##ఎ
##ܧ
##ᶇ
##႒
##🦖
##⒜
##⒢
##⒯
##ￎ
##ڻ
##ᆞ
##ᆡ
##ﯷ
##ₕ
##ⱼ
##ݑ
##⍣
##⊢
##⍵
##ၻ
##ߤ
##𝒽
##ꇴ
##ȥ
##ⵕ
##♁
##ከ
##২
##ᴐ
##⅗
##𝜆
##ｻ
##ﲈ
##ః
##ӽ
##𝐒
##⛸
##𝐙
##⒇
##ݰ
##๘
##ㅃ
##⣙
##ժ
##ҭ
##🠞
##⇴
##ᯬ
##ۈ
##₵
##ᬯ
##ѣ
##🧤
##ᶯ
##ፖ
##ຣ
##𝒷
##𝓇
##𝓀
##ጣ
##ᮻ
##ᮼ
##ᮽ
##⊊
##ㄋ
##🖏
##✬
##ወ
##ዀ
##ሴ
##❢
##ݒ
##ᴑ
##➊
##ష
##ꮨ
##℟
##ꮊ
##ሺ
##⒋
##⒴
##ᮎ
##ሥ
##ﹽ
##ލ
##ތ
##ᶻ
##༶
##᾿
##ヰ
##⌅
##꧕
##🅓
##⒉
##ৗ
##ષ
##ℐ
##ഖ
##ጠ
##ኻ
##࿾
##౏
##𝘷
##𝜙
##ᅌ
##ﲰ
##ㅖ
##ﮜ
##𝔲
##𝔰
##𝛁
##ཡ
##ͺ
##ᯑ
##ｨ
##≔
##♆
##ㄲ
##୨
##𝝲
##ⴈ
##𝗝
##⇽
##♗
##♘
##♙
##ﮋ
##ዪ
##ኝ
##↳
##⇀
##ᖴ
##☈
##𝙊
##〒
##ᵴ
##༡
##ߺ
##ᣇ
##ᵅ
##ᚢ
##ᚾ
##ᛁ
##ꊯ
##ꉬ
##ኣ
##ལ
##▥
##ຖ
##ʸ
##⫸
##ቅ
##൩
##≍
##ﭲ
##℈
##￦
##இ
##೨
##❧
##ࢲ
##ၵ
##ￋ
##∎
##ﯩ
##ᶛ
##ථ
##ᒆ
##🈷
##🈺
##៧
##𝓯
##ᓫ
##ᗜ
##؎
##ꂅ
##ｷ
##🕞
##␐
##ﾏ
##⍻
##ᖺ
##ߢ
##ᵪ
##౿
##ﱄ
##𒂆
##𒈦
##🦴
##🕎
##◒
##ߒ
##🛃
##ꦅ
##ዱ
##𝙇
##𝙆
##🕮
##ƈ
##ჭ
##𝄪
##𝐳
##𝖓
##𝖊
##⅕
##⋘
##𝑭
##⏌
##𒈪
##𒉡
##𒄠
##𒈬
##𒁉
##ￓ
##￤
##ￇ
##ℱ
##ॊ
##꧔
##꧎
##ⓧ
##𝟾
##ڼ
##ٻ
##ۏ
##🎜
##ﮊ
##ﮌ
##ℭ
##𝛆
##ᨀ
##ﭿ
##🕆
##৬
##ᶟ
##⠂
##ᮍ
##ￕ
##ᬾ
##ᬅ
##ᬤ
##ꭹ
##񡴡
##⣤
##↣
##ₑ
##򐭤
##⑾
##⌤
##𝟵
##ጓ
##ԏ
##⋒
##ﮟ
##ᡡ
##ᠰ
##𝒪
##𝒰
##𝒮
##ఌ
##𝗚
##ឲ
##ˏ
##𝗨
##𝗧
##ﾺ
##ꜛ
##ዛ
##ᯖ
##ᯃ
##𝔡
##🆇
##ﭰ
##ⱱ
##▯
##ృ
##∁
##🦗
##🎳
##℞
##⋇
##ഴ
##ﯥ
##㊈
##㊉
##🀊
##ᠣ
##ᠭ
##ᠲ
##𒅎
##𒂂
##𝕝
##ㅛ
##ጵ
##𝝎
##⇁
##ݏ
##௟
##ཐ
##ဧ
##𓀍
##𓀎
##𓀘
##𓀢
##𓀗
##𓀠
##𓀟
##𓀡
##𓀤
##𓀥
##𓀺
##𓁀
##𓁁
##𓀶
##𓀳
##𓀩
##𓀪
##𓁋
##𓁞
##𓁟
##𓁖
##𓁠
##ጃ
##⤍
##ٸ
##ڭ
##↾
##🅧
##ﮗ
##ⵎ
##ⵖ
##ⵉ
##ⴱ
##៯
##⏊
##⾊
##₠
##ᮂ
##ℤ
##೉
##௩
##🖎
##૨
##𓀐
##𓀙
##ﮒ
##ﮔ
##ﮕ
##➈
##ᮠ
##ࠁ
##🈵
##🈯
##🈚
##🈶
##˒
##൭
##ﱂ
##🛅
##𝔪
##𝔩
##㎲
##񎧗
##ળ
##↹
##𞌳
##𞌿
##ꈬ
##ݔ
##₯
##₭
##∰
##ﮉ
##ⲧ
##ℌ
##◭
##◬
##ﳝ
##⨪
##ฌ
##⤔
##൒
##⍨
##ɺ
##ᯇ
##ᯞ
##ᯪ
##ᴦ
##ⴳ
##ⴷ
##ښ
##ዊ
##⚗
##ᬧ
##񎧔
##⛇
##ﮥ
##ᯤ
##㇠
##ﲣ
##ﶈ
##⇿
##ሜ
##ᣞ
##ᄽ
##ଙ
##କ
##ﯠ
##ￊ
##￑
##ԑ
##ﮚ
##͹
##ᵼ
##⒆
##🆑
##ㄞ
##⟸
##𴫸
##ෟ
##ɋ
##થ
##ឪ
##⍅
##㉨
##ᵔ
##🏺
##ㅆ
##ڮ
##ᢥ
##ⵊ
##⮴
##▋
##ஹ
##ɇ
##ꦍ
##ꦐ
##🥭
##ቴ
##╸
##🗄
##𝐟
##੧
##ឬ
##ኦ
##ജ
##ꮠ
##𝟿
##𝟻
##ᵭ
##𝛺
##⇌
##𞓳
##ሕ
##ﾻ
##ﭜ
##➝
##ຮ
##ࢸ
##ࣝ
##৐
##ᴤ
##⇘
##ໝ
##ቪ
##⋄
##➒
##ȵ
##🏒
##ဿ
##ኪ
##ﭮ
##✠
##஼
##ꇳ
##⍳
##┸
##𝓒
##𝖠
##𝖭
##𝖢
##𝖮
##𝖪
##㎒
##∡
##꓄
##ၥ
##ﾑ
##ᗣ
##޳
##ഃ
##🥺
##ᶱ
##ᨆ
##ᨔ
##𝟪
##⬠
##ﰊ
##ᶫ
##򌐠
##𝑴
##𝜀
##પ
##ℰ
##򑐠
##ͼ
##ഥ
##ᴎ
##␔
##ヵ
##ऊ
##ᮖ
##ሮ
##ዞ
##૯
##󬩣
##𝓿
##ጊ
##☱
##➍
##ﳏ
##ﾸ
##☌
##ᵁ
##𝜶
##ވ
##ހ
##⿝
##🦔
##↬
##ሷ
##ൺ
##▩
##ⅅ
##ਊ
##ߍ
##ﴽ
##☸
##ᗊ
##🕝
##🕢
##๔
##ᴙ
##𝕱
##𝖗
##𝖑
##𝖘
##ⰾ
##ⱁ
##ⰲ
##ⱑ
##ⱀ
##ⱐ
##ⱄ
##𒊩
##𒌆
##𒅁
##▕
##𝕌
##𝕃
##𝕄
##ﱀ
##ㆁ
##𝒇
##⛼
##𝕗
##𝓊
##ꊰ
##ﮍ
##ͻ
##❟
##ᶾ
##ﳓ
##ᶆ
##☥
##ቲ
##𝓴
##𒁀
##𒌑
##ꮃ
##ਏ
##ጧ
##ꮷ
##ꮭ
##⌳
##󤀀
##ঊ
##௦
##ఙ
##ꙁ
##ꙑ
##∮
##ഒ
##⚉
##🛆
##ҕ
##ۋ
##ƻ
##ଢ
##ଇ
##ᚔ
##ᚈ
##ᚄ
##ᚒ
##𝔠
##𝔬
##𝔭
##🦜
##ڰ
##ߕ
##ݤ
##ߎ
##ꏁ
##ㄖ
##₣
##ﯱ
##ﯳ
##ﯴ
##ﯵ
##𝙢
##✃
##ଉ
##⮭
##ᯅ
##ﭝ
##ൠ
##௨
##௠
##௛
##𝐅
##ሬ
##⍙
##ᖅ
##ᑖ
##ᓗ
##ᒃ
##ᦙ
##🥫
##⑺
##⍲
##⤀
##ㄛ
##⚁
##⭵
##ﭱ
##ꦎ
##ધ
##⌱
##ᧄ
##ᦠ
##ߌ
##ꊊ
##ᮃ
##𝘉
##և
##⇶
##꒰
##ﾯ
##ꑋ
##ࡩ
##➴
##ﹷ
##┑
##┥
##⒍
##┋
##ሂ
##ශ
##ݎ
##ⴎ
##🗢
##⇆
##🠟
##ஷ
##ޒ
##ԋ
##℻
##ﾚ
##✙
##✛
##⒤
##ጀ
##𒋼
##𒋛
##ⱺ
##⤋
##ᴂ
##⬦
##㊁
##㊂
##㊃
##㊄
##㊅
##㊆
##ཝ
##ⵍ
##ⵜ
##ఞ
##ෆ
##ↁ
##ᓦ
##ᓜ
##༠
##ꭗ
##ଛ
##ဋ
##񊐠
##ᮅ
##𝙯
##◮
##ቻ
##🧁
##🥮
##ㄔ
##ﯶ
##ڏ
##ᕮ
##ᗯ
##⿠
##ꭶ
##ꮝ
##ᐻ
##ʐ
##⎮
##ﱰ
##☋
##ԣ
##⏵
##ᶘ
##ꃪ
##㊣
##ઈ
##ફ
##ܨ
##🧧
##ﯛ
##ﯟ
##᣿
##ᣣ
##ᙗ
##ꮑ
##㏈
##ⅶ
##ݛ
##ݦ
##𝑾
##ཞ
##⌟
##ﾆ
##എ
##ﲥ
##𷋩
##⟺
##〢
##꒵
##⺆
##❒
##◂
##ℷ
##en
##ka
##ar
##la
##at
##da
##in
##ga
##kan
##ya
se
di
##ta
##em
da
##si
##un
men
##ra
ya
##tu
yan
yang
be
##sa
##an
ke
te
##am
##gan
##li
##ah
dan
##ri
in
pe
##ti
##di
##ang
##on
##nya
##ak
ber
##lah
ter
##al
##pa
mem
##ing
##ari
me
##bu
##ku
##ba
ma
##ran
pen
an
un
##ara
##gi
per
##ja
##lam
den
##tuk
##lu
ini
dengan
sa
##be
untuk
pa
##us
##ma
ti
##se
ba
##or
##pat
##lan
##te
##le
meng
bi
##ung
##pe
su
ada
##ki
##bi
dari
##om
ka
##re
##um
##ur
la
##ro
##dak
##rang
##anya
##pi
##du
dalam
tidak
##tan
si
anda
ju
##wa
##ata
pada
##san
itu
ata
ja
##ua
pem
bu
##dah
##is
##de
akan
##ha
##ita
##per
##ok
##ik
kam
##uh
##ena
le
bisa
sem
##atu
atau
mu
kar
20
##sia
##ju
##gai
##ke
##dan
de
##pu
##ir
juga
##su
pro
##lo
adalah
##jadi
##ge
##ili
re
##han
har
saya
bah
##ati
##but
##st
##man
##ru
seba
kem
##leh
##kat
##pan
##ter
sam
##sar
##atan
##asi
tah
dapat
##bih
##to
ta
##inya
201
orang
kita
##il
ku
##angan
##ca
##ika
##one
po
##tar
##akan
lebih
##it
karena
mere
oleh
ten
man
##ye
apa
bar
##ce
mela
menjadi
##gu
##gun
##asa
##ingga
mo
terse
tu
##rta
mereka
sudah
##bar
##anyak
##dang
kami
##eng
ind
##ut
ko
lain
tem
##rah
##lin
sang
##cara
##pun
sebagai
##ia
sen
##bah
banyak
##sih
bagi
##bat
tersebut
satu
aku
nam
##perti
kon
peng
##lang
##as
tahun
saat
##hat
al
membu
pu
##duk
##ini
ak
dia
##lum
seperti
hal
##onesia
so
indonesia
ben
##et
##kukan
##ber
menga
##ap
##inta
##lai
sangat
tan
##ve
mas
##hu
tak
##bang
kepa
cara
sela
li
##jar
ag
##tang
memili
##hi
ce
jika
##ol
##ban
##mu
##pai
hari
kom
bo
ne
##ji
##sti
hanya
on
##ungan
anak
##kin
##rja
##tas
harus
membe
ra
##gunakan
beri
telah
##diri
seka
##dapat
##ong
ha
hi
ban
baik
##rapa
##line
##lau
##las
##yan
secara
pan
##he
##ko
##im
saja
##ksi
ar
pun
kali
##uku
lu
bahwa
wa
##tara
ing
##po
memiliki
lagi
##rat
##berapa
membuat
baru
##tor
maka
##aran
ge
beberapa
kepada
meru
online
menye
jadi
##kit
para
ga
rum
##wan
##lis
kan
tapi
teta
##tama
co
semua
##pakan
inf
je
##alu
seh
ia
salah
##kah
sebe
##tik
masih
##bo
##na
harga
##itu
##saha
masa
keti
menc
##suk
##bil
wak
lo
am
##hir
##orang
he
mau
merupakan
rumah
##00
bera
##sung
##ama
lang
besar
as
##lihat
kamu
meny
##tif
namun
gam
to
com
##rikan
##ses
##ten
##mana
pi
sete
produk
##fe
##tus
sama
##rasi
tentang
##kai
do
setelah
tam
du
berba
##main
##ting
##buh
sebu
##ingan
tempat
##ate
##dia
##tem
##sal
en
melakukan
menge
##lik
kata
##dar
##ungkin
sampai
serta
seti
menggunakan
##ram
kec
##luar
##onal
ser
##unia
##kap
waktu
##kut
um
ang
##rak
##ci
atas
##kasi
makan
ting
ru
bukan
sebuah
nya
##gara
##der
##lat
dila
pal
##do
tim
##lkan
pela
##pak
dunia
ingin
##masi
##jak
##go
ki
sedang
##ben
2018
##rasa
selam
war
##ho
sendiri
kalau
mi
##lit
##fa
kota
##es
sebelum
sehingga
pern
lalu
##kn
bang
is
##ukan
##jang
mendapat
##ul
na
pri
ketika
##rita
biasa
dise
##hada
agar
##ks
air
##udi
ap
no
st
##ampu
ri
peme
ni
setiap
##sama
##uru
seorang
##wah
##sen
jen
##wat
##je
kese
ken
##ding
sekali
mene
##unya
memba
memang
##log
mes
##jalan
benar
we
hu
##tern
##ormasi
##karta
##tahu
alam
##uhan
##atang
##gah
##ana
dis
##yara
memberikan
memper
##vi
paling
vi
tang
##bali
mungkin
##aman
##tasi
yaitu
keluar
##lur
peru
dua
##lui
##pkan
obat
diri
mudah
10
hingga
belum
##aha
##yarakat
##rima
penya
mana
lainnya
##ore
mak
##yah
dilakukan
##ad
tanpa
masyarakat
mar
##hasi
##rik
##war
##me
melalui
##oko
jalan
##annya
allah
dem
pre
fo
##ina
terjadi
akhir
penga
##kerja
##litas
hasi
##kon
##ck
kerja
par
lak
informasi
##jut
terba
menu
jam
gu
yg
berbagai
bela
hasil
langsung
ho
##dung
##tak
##iki
pernah
##ver
##usia
lan
##baru
19
##dup
negara
arti
blog
ro
jawa
pene
##ukup
##kar
##uai
##mi
tetapi
##gang
##tal
seki
bagian
perlu
mulai
jangan
hidup
##yata
selain
##udian
##dara
menur
cukup
kemudian
##hadap
kedu
##bun
pema
berikut
tra
##yar
kembali
penyakit
wan
##ent
selama
jakarta
mendapatkan
pertama
wi
##caya
con
##min
##wal
situs
##faat
##ftar
sekarang
##ris
nama
terhadap
bersama
##yi
tinggi
mengata
melihat
wanita
##fi
##ken
##teri
selalu
##gas
##suai
terbaik
##yu
terbaru
##ps
##sah
##kal
##oke
ca
intern
bahkan
masuk
##unan
diper
web
bulan
buat
##jah
##bab
beru
desa
##ch
lem
tubuh
antara
##disi
##mp
##stem
tahu
mengi
##umlah
jenis
##gal
rasa
##arik
##anti
##og
bola
##ingkat
tetap
##erah
##den
##bangan
manusia
##cam
bagai
##ren
judi
##rinta
or
##har
##sis
min
##ton
hati
##tai
##tuh
fi
##tur
ham
##mal
##ikasi
sum
sesuai
sering
mema
##sem
daerah
##yat
##ust
##tahui
##kel
barang
##hatan
##bung
bahan
sekitar
ad
penge
pr
##logi
##inan
masalah
terus
pak
suatu
gun
kecil
sak
penye
proses
pemerinta
mengu
##gram
pembe
##leng
menya
##likasi
##sn
ren
##rim
kh
2017
##gitu
sedi
##guna
##cu
##gak
bagaimana
pasti
##sahaan
200
##pang
##co
beli
##didi
pili
lama
##gus
##id
tekn
memban
begitu
##ss
ibu
menem
go
cepat
umum
menurut
mah
musi
perusahaan
##por
merasa
##lar
##kem
##bungan
##luruh
##ami
##beda
##laman
##tung
##bal
##hak
##wn
toko
##swa
##sasi
##we
##aya
digunakan
em
##so
kulit
cu
kedua
fa
sistem
teman
kal
##pen
luar
semak
##sai
uang
##lasan
##kannya
penting
diba
##ahan
mus
mengena
gambar
##sial
##snis
agen
permain
and
bin
meme
ram
semakin
ci
makanan
mampu
islam
seluruh
##usus
kesehatan
##ni
gi
dar
murah
dibe
permainan
##tih
fil
kun
maupun
##sum
##tanya
##sang
foto
##wi
bermain
##kolah
##juk
pendidi
mata
jar
il
lagu
##gian
mobil
berada
khusus
kera
##masuk
masing
##isata
##asional
for
datang
##juan
dibu
apakah
##bahan
##ine
data
##load
sm
mend
##ologi
kegi
artikel
jan
membantu
bawah
12
biasanya
##sana
pin
##sif
tangan
##engar
ah
pera
din
bisnis
sekolah
##dur
##ome
##lahkan
rp
tran
##itas
kegiatan
pemain
mili
ng
pemerintah
depan
hadi
sia
##omo
##toh
pendidikan
##tian
##ker
##el
program
punya
alat
mencari
sedikit
pria
tern
##lem
##men
##jung
##mat
##lahan
bila
semen
mun
##batan
bahasa
termasuk
##oker
poli
##katan
##hara
fak
##ket
the
##yanan
##tinya
##inggal
##gera
ema
##ori
##omi
##kir
##ll
mengatakan
##ada
##lom
##pon
##ler
kehi
menja
meningkat
##pas
##atas
##pur
contoh
malam
daftar
##ph
##lami
res
tur
##ral
huku
mengenai
##tel
tar
##hati
##kenal
spe
##yang
memu
awal
##patan
##wnload
kepala
sal
menarik
meski
buku
##rangan
##kti
tentu
film
pihak
vide
##gung
kurang
jelas
kua
bun
bentuk
keluarga
kas
##ne
sebelumnya
ins
kena
##sep
belajar
tengah
media
pengguna
sejak
kebu
##gam
15
sakit
##kuti
badan
##kas
dulu
akhirnya
##lanjut
video
##bak
##ratis
##ikian
##tam
##daya
aplikasi
san
##kungan
posi
gen
menun
##pre
suka
pus
##lim
##yai
im
##ino
peri
of
kalian
usaha
seben
##sir
##jaran
warna
##uhi
kor
gratis
##paya
##uan
pertan
##uas
berbeda
##hon
##aris
sele
##site
download
##rai
wisata
terka
##takan
mengan
fe
siapa
##atif
sementara
##inkan
jumlah
11
##lak
##arnya
tepat
##ungsi
ternyata
mele
hukum
menam
terbu
kabu
nom
##oga
##percaya
demikian
game
segera
jauh
tiga
##inggu
##tentu
seri
gak
sesu
mat
kondisi
##lalu
##guh
cerita
##dakan
id
##lus
sese
memilih
berita
##gar
mer
##punyai
##geri
##dis
##sel
##babkan
##lasi
##rip
##mati
aman
##langan
up
surat
##os
mempunyai
##jual
kak
baca
##llah
op
##ongan
##ger
nilai
dimana
mini
adanya
##pok
berda
ilmu
lam
mode
can
##dangan
bekerja
##tah
##fek
sej
##up
bagus
at
tips
dim
##tis
##paten
dike
##rinya
silahkan
mengalami
semoga
jual
##tiv
ling
sebab
##enang
##yo
utama
##jan
ve
##gama
pasar
nomor
uni
juta
##tuhkan
kabupaten
pembu
terle
##tuhan
aja
kat
##cana
menang
poker
2016
tum
mengh
pas
pende
##pir
##puan
##capai
negeri
##unggu
##car
klik
##til
##kibat
terdapat
##uni
##sarkan
efek
sy
terima
kau
cinta
##hasil
alami
buah
##ron
kep
##ts
pekerja
sumber
laki
ch
##serta
##kang
kasih
disebut
pilihan
##kom
##gala
##dupan
warga
leng
##stri
tiba
her
##tion
tanah
pemba
##perasi
##phone
keku
mesin
##sam
pakai
kini
kemen
dasar
guru
##ser
website
sek
mence
##dingan
sun
sini
sin
motor
##par
##ry
darah
##tun
lah
##get
kehidupan
acara
terlalu
terlihat
seseorang
macam
##dul
sta
internet
##ws
##jam
##tua
##ungi
wajah
ali
sosial
##ord
##kaan
tanggal
30
##yam
meningkatkan
tuhan
##bel
##yak
hak
berat
batu
##uman
perem
membeli
berka
ab
lakukan
000
##hal
organ
lihat
tujuan
hotel
siap
karya
kha
##ikan
##bila
segala
##cul
sebenarnya
##jian
minggu
##kuran
han
##pin
##tum
anggo
##tunya
##dik
panjang
jasa
##gap
##salnya
tidur
##lek
dite
yo
dika
##sitas
nasional
ditem
##dari
berhasil
sim
apabila
gol
kutil
##ali
rak
##usu
##art
kelas
pesan
dipa
teru
kuat
barat
terpercaya
terak
muncul
sebagian
perang
18
pula
##sangan
sedangkan
sel
##unt
post
model
bum
soal
dekat
##ist
teknologi
mengetahui
dian
menemukan
##entar
manfaat
trans
email
lengkap
##layah
perjalan
meman
14
##buhan
kebi
peneli
biaya
anggota
sesuatu
##pung
tingkat
##konomi
hubungan
terakhir
##lisan
perempuan
putih
##siden
kebutuhan
tinggal
wilayah
100
sat
##bur
##dal
pt
##ruk
langkah
bidang
##tro
agama
kesem
16
##no
bank
##tahan
eng
mena
muda
car
##roid
coba
##gh
##tra
##arti
kartu
##diksi
perjalanan
##atkan
lin
dok
##pro
##lia
##bis
membuka
##asiswa
cal
##gris
disini
##dukung
sehat
bat
kur
13
kalo
##tup
##can
##ring
kamar
desain
inggris
eks
pusat
pertandingan
##diakan
ukuran
tanda
##puter
##kni
##kus
##manfaat
##laku
lingkungan
##bas
kualitas
##pilan
yakni
##lukan
##badi
pla
##ob
menje
membaca
boleh
##insi
kelam
nah
berku
##atur
tau
##bentuk
kre
##bangun
##sak
##angat
pers
info
lanjut
##jib
ruang
sk
nanti
rem
pang
pemu
terkait
tua
##cing
nggak
memberi
kesa
berdasarkan
komentar
25
##bangkan
ayam
##siko
walau
samp
##au
komun
nan
##sik
pon
tin
ik
rambut
##eri
##jo
##lusi
##enda
##kau
mencapai
##sanakan
##jukkan
kri
##ona
kece
##res
berjalan
##tt
##vel
##dai
17
mende
menit
kasus
##sud
taruhan
##ft
##sumsi
ditu
promo
##sul
android
##her
##lian
layanan
##pus
##gel
inilah
##kses
bak
kap
lewat
##tikan
##book
posisi
bayi
akibat
membawa
bur
ji
banget
menghi
pra
penu
kepu
mempe
suara
mengha
musim
##ot
hp
##sikan
siswa
udah
pekerjaan
kantor
diban
##ven
##let
alasan
presiden
penuh
ekonomi
terutama
pemili
mengam
cuma
##lompok
akun
##cok
bantu
##ksanakan
komputer
##wasan
ac
##angka
timur
diam
isti
##jem
dirinya
##pr
us
gue
cari
sambil
##kul
gan
##lih
##inasi
kemampu
muslim
ujar
jo
kelompok
kelamin
lokasi
##tim
resmi
##rus
2015
##daftar
por
##pati
tulisan
sho
##saran
merah
berarti
##hen
daya
alamat
pagi
bali
menambah
olah
##cang
##oba
non
misalnya
##lagi
nu
berke
bro
##bet
selamat
pasangan
menerima
##gn
ane
kebe
kesempatan
##dungan
##ikmati
##pp
##aturan
##ling
peran
pergi
diberikan
angka
##omb
##isi
jawab
##jakan
##tensi
tentunya
peserta
##stasi
kenapa
##luh
menging
prediksi
penelitian
bangsa
ikan
tugas
perubahan
pengalaman
member
sih
##gen
menen
24
kaki
menuju
##was
anti
ob
semu
##kena
mengun
dokter
wajib
apalagi
nyaman
mahasiswa
smart
selanjut
##pil
##mad
hampir
##set
mengambil
##rakan
belakang
menyebabkan
hara
asal
##mas
asli
selanjutnya
##ly
##dingkan
menjaga
mencoba
hen
naik
##fat
kemampuan
##wak
ex
mati
##hasilkan
ib
ung
kete
##ct
ikut
ataupun
sub
operasi
pengo
##ham
##arian
pengem
##umpu
herbal
usia
##banyak
sur
##itur
mengikuti
ver
##ek
tertentu
##dalam
bermanfaat
##sit
##hana
faktor
berbagi
bandung
paket
##warkan
pembang
##puh
univer
##jukan
##stik
pilih
selatan
tri
fungsi
##jarah
perhati
gem
cantik
itulah
##blik
meskipun
##pot
panas
gunakan
mengem
##rid
ribu
mera
keada
ameri
disa
##ian
##raga
##tusan
##ud
bakal
goog
mate
korban
21
08
##inyak
bunga
menunjukkan
##wang
pertanya
##bungi
ide
tun
##af
##tera
cat
belan
sejumlah
liga
##vie
##tukan
fitur
sulit
jum
jepang
buru
dikenal
##tes
menjalan
##buran
politik
pelang
##luk
es
put
indah
##ui
##tisi
dipe
ok
google
rata
tersedia
dewa
dibuat
##saan
##ustri
##rate
keu
00
##roleh
cocok
penc
##untungan
nabi
bon
2014
##gor
keadaan
peny
##lengka
dire
##baya
##cur
profe
##era
bikin
sukses
main
aktif
keras
berkata
halaman
turun
dana
##dit
seni
penggunaan
dr
tele
rama
sayan
##for
dapatkan
pembangunan
materi
buka
##tin
musik
##hulu
hadir
perkem
##dy
ek
admin
menyediakan
##jala
##laskan
##bit
th
##inal
empat
meli
menulis
percaya
vir
persen
##isasi
##itam
2013
##tahuan
dom
pengi
pertanyaan
##ging
##atuh
##garan
bertem
istri
##sional
##pada
face
sana
50
calon
berge
sisi
##besar
lupa
beran
baju
diang
##ster
sah
isi
tadi
amerika
diatas
sejarah
ran
undang
jaringan
##yek
dahulu
meminta
membutuhkan
lima
padahal
sayang
rakyat
##top
terlebih
pengu
##lola
##th
minyak
##derhana
mendengar
##gem
gejala
mp
##enaga
perkembangan
katanya
ayat
strate
mengapa
##od
hitam
indi
sura
tiket
pol
ketua
unik
saran
berf
##inggalkan
tanya
togel
berupa
pesa
sung
bumi
##cak
fasi
bandar
dibawah
satunya
industri
meto
##date
penj
pelu
suami
sebesar
##atis
stan
pribadi
pelayanan
antar
tampak
##les
mengatasi
##paikan
##jungi
seke
list
##iran
##jikan
menyam
laut
##jur
budaya
aktiv
22
##sinya
pulau
##uk
##ganya
sempat
wasi
##gaan
smartphone
diketahui
demi
supaya
##langkan
##pek
##sok
cen
sha
stu
mis
berasal
##bicara
tradisi
pantai
##arkan
bern
berlang
fre
penyebab
strategi
kadang
link
##ahami
duduk
inve
##gia
cas
uca
##za
##tambah
mon
##kun
keka
penam
selesai
home
luas
sederhana
bersih
pat
poin
bebas
beliau
##enangkan
len
##panjang
##asan
##fer
mengin
##rian
walaupun
##ed
gar
resep
ayah
jende
##zi
mengen
keber
are
kemar
keuangan
##obati
kisah
sehari
prov
super
##sien
sep
pena
##dir
facebook
kanker
file
terasa
saha
##lut
muh
##buk
##wab
23
mengaku
##baran
milik
##rangi
agus
karak
peraturan
nor
arah
##baikan
pukul
menim
##sim
199
##sten
kemenangan
sebanyak
pengetahuan
tiap
pendapat
menci
keru
##ation
##ember
semuanya
pia
gaya
popu
sepu
##lap
pener
tanaman
memakai
##kali
tangga
keuntungan
##ptakan
pelak
sd
##ril
mengandung
##ted
nge
nasi
win
metode
ii
menghasilkan
kore
##rab
mengang
teknik
##warna
berkem
##mo
spesif
##jud
nov
vita
##impin
berusaha
apapun
##luarkan
sebaik
ulang
dini
malah
membangun
##vasi
tenaga
##ahkan
sab
##gangan
sahabat
perka
##uasa
##pengar
penderita
##duli
prak
##dem
##atal
artinya
##gabung
##barkan
##qu
kompe
##baga
##sian
situ
balik
api
pesawat
utara
ace
##olong
##tri
##bihan
fasilitas
olahraga
##kiran
2012
memen
##daraan
kesu
##val
kecam
bertu
##tori
mari
kebijakan
jad
##gra
sh
modal
organisasi
hija
perangkat
keter
saling
tersen
rah
##usnya
terbesar
##lebihan
bersa
##lakan
ketiga
berse
##dahan
provinsi
##wati
iklan
minum
##gori
senang
partai
tumbuh
##wit
##poran
surabaya
pengobatan
mal
sepat
rendah
ambe
daun
gene
seru
##okok
just
##put
bantuan
##vo
##hubungan
berubah
##harap
##harapkan
kecamatan
perse
##wu
ot
menikmati
##view
net
##yaran
kekuatan
gunung
kaum
mendukung
##pla
menurun
umumnya
sekaligus
tas
wasir
mad
pos
htt
universitas
##asaan
##sukan
##das
versi
teng
berkembang
##rum
##ator
keb
umat
moder
enak
##dus
berikan
produksi
menyebut
dewasa
pintu
##jal
virus
##rgi
mengobati
##duan
sifat
berlangsung
gang
akses
ditemukan
##sual
##ware
##anyakan
##ien
dipi
kawasan
raya
sau
##simal
tekan
raja
takut
pelaksana
internasional
##lub
##alitas
##watan
##kum
uru
low
peman
##hadapi
maaf
laga
wah
##port
kemungkin
kandungan
keputusan
berpi
piala
kelu
sc
##bulkan
muham
##aa
keli
seks
terkenal
abu
##tangan
menyem
##tul
##atakan
kabar
dimu
##urus
##kaian
buruk
hamil
khususnya
berharap
##ze
bab
samping
##ff
jawaban
konsep
lembaga
##pangan
aktivitas
pulang
cer
kendaraan
tera
##pis
kamera
trading
sar
##dana
##pet
##lenggara
dianggap
pertem
studi
hehe
seo
kemungkinan
kira
##mpak
peluang
##tihan
vo
##lengkap
bonus
polisi
##ww
elek
che
ciri
##uali
##sto
##ingin
##jid
cek
##masa
ahli
##va
dah
yakin
##pilkan
total
##ukur
pengun
lahir
laporan
##pel
kejadi
##tol
##sungguh
update
kemarin
##saksi
membah
##wer
modern
##ganti
dipakai
dra
##gil
gadis
memenuhi
cam
syar
kayu
fore
##sur
menjelaskan
##gantung
ene
juni
gw
##orong
##mar
kirim
janu
bernama
namanya
##tober
daripada
pembela
rela
you
upaya
##lir
pakaian
standar
kim
##leksi
##raih
pelanggan
ambeien
terdiri
udara
##tut
##purna
joko
##agia
qu
berapa
emas
sungguh
##indari
mim
##aja
##lesai
jatuh
##usun
penulis
##ity
hilang
menyatakan
listrik
pes
semangat
sepatu
##wo
##len
gro
makin
au
bukti
area
##hit
##turan
##mer
##yani
vs
kok
sebagaimana
kode
sepe
kejadian
agak
kering
sesungguh
##latan
sepanjang
kunci
tipe
dilihat
menjadikan
hendak
pekan
ero
pengembangan
##sulu
bapak
##cinta
kela
pah
ingat
feb
sesungguhnya
dinas
kaya
tahan
beda
##lanjutkan
bangunan
justru
##kutan
bertanya
##jat
##ret
tert
sepak
benda
##jari
tambahan
##mon
korea
##kak
tambah
##ikah
##ream
menteri
bb
##sakan
pembuatan
##lun
##ment
layar
##karan
##ategori
##ble
##bus
kopi
berbu
mei
jal
mp3
##tek
##dok
mengurangi
##jek
konsum
sp
##hatikan
ponsel
28
##che
##lemen
spesifikasi
##lengkapi
penis
via
efektif
komunikasi
jantung
karakter
mendatang
gigi
##und
senin
daging
##ualan
perda
desem
##ungkap
positif
##cer
unit
bergerak
agustus
##dom
januari
desember
##fikasi
tokoh
pajak
minta
##dam
wib
##sulullah
menentukan
pelaku
mengge
bertemu
##visi
##guan
##cat
guna
oktober
diu
lowongan
bers
jadwal
terja
berkualitas
berpe
merasakan
pening
shar
##yum
sebaiknya
kos
ket
november
tindakan
memperoleh
mencegah
solusi
repu
gra
##bing
new
sehar
pembayaran
kapal
lap
deh
menghilangkan
##tember
tata
berlaku
##pta
##cah
mengenal
##bir
##lon
tampil
##irkan
melaksanakan
perhatian
rencana
september
##ih
##daan
rasulullah
pasal
konsumen
rek
menyu
27
www
nye
jer
tamu
pul
tv
transaksi
40
taman
##ilai
melawan
jem
##aku
##din
bla
##py
##stinya
soft
digi
hujan
dijadi
##ag
dibandingkan
siang
meninggalkan
##dera
sikap
bintang
##tumbuhan
##ary
masjid
##yataan
##onton
tradisional
##atus
pola
khas
##trol
april
laz
meja
bing
kapan
##kirim
perbeda
pengunjung
disebabkan
##henti
berbah
wor
##tika
pertumbuhan
gerakan
##dat
penger
asia
26
fisik
otak
menawarkan
bilang
medan
##impan
berwarna
##ns
memahami
kalah
kamis
pikiran
juli
energi
dpr
keaman
2011
menunggu
##ono
mandi
##fir
berhubungan
##ganggu
komp
##tot
perawatan
aceh
dijadikan
rasanya
lokal
tema
diharapkan
##taran
##liah
##dinya
##gikan
dll
review
asam
susu
asing
##ruktur
berdiri
##dilan
##urn
penje
termu
melin
dijual
aksi
##badah
tertu
jendela
##bul
biar
forex
##fo
pembelajaran
##dian
##bin
sw
bus
rabu
harapan
pil
set
depo
mulut
keke
jiwa
mohon
##jemen
menghadapi
minuman
terbuka
nak
ampuh
pemilik
mul
perbu
dita
af
hewan
diperlukan
syarat
matah
##stra
pap
menan
##duh
berju
menjual
luka
##ds
##aksud
menciptakan
kiri
maret
##jamin
proyek
meraih
titik
wakil
remaja
kanan
keamanan
jarang
##dahkan
muhammad
##yaan
aturan
##dut
matahari
free
##kaitan
sma
manajemen
engkau
anali
##hh
habis
##oki
##tuskan
##50
##rit
catatan
elekt
berikutnya
sabtu
perasa
pohon
##rahan
##duduk
keduanya
diantar
pelaksanaan
maksimal
jumat
##buhkan
##lisasi
##ame
perut
##lay
hon
##ikahan
perbedaan
bekas
##iring
peningkatan
##itra
sya
2010
##sk
##macam
kuliah
sup
##sting
nih
menjawab
bergabung
yog
perm
bupati
layak
mengeluarkan
menghu
ruangan
##feren
menimbulkan
febru
radi
skor
##hasilan
gangguan
nyata
laptop
gedung
##tapkan
rang
##ard
pengar
kalangan
kesalahan
didalam
kebanyakan
terbukti
##oro
keren
penerbangan
out
##ght
berpikir
ny
terang
##nur
berm
dii
nga
keh
pernikahan
casino
glo
kategori
##rol
manis
##konsumsi
##ilan
sungai
##dra
##pk
maha
sobat
lati
##lama
dibi
pemimpin
kumpu
selasa
seksual
eropa
imp
zat
terke
normal
pengertian
zaman
##vice
jarak
lat
##tail
berhenti
aneh
mahal
##rahkan
burung
##inginan
lapangan
mengirim
ringan
hor
publik
##yun
prof
ph
kecuali
populer
kere
guber
##bon
##ner
windo
lantai
##pirasi
vitamin
29
menjalankan
judul
pelajaran
sms
pulsa
investasi
minimal
http
hubungi
##rup
dimili
nar
dimulai
gubernur
minima
hijau
ori
perju
postingan
cem
klub
meno
##litan
dibutuhkan
insta
pendaftar
fakta
butuh
mang
pemb
##okep
naf
fan
tahap
##komenda
dilaksanakan
ialah
##tuju
disi
saudara
istilah
##van
##pura
teri
##yangkan
##ras
##ria
##tanggung
penjualan
penjelasan
susah
##jaan
hem
tunggu
##rin
kredit
penduduk
menurunkan
sempurna
mom
##imp
minimalis
##20
ditan
diberi
maksud
bere
dukungan
za
##mah
##pasi
ye
pertemuan
##ikir
blogger
##rapkan
##hkan
##kota
kursi
pemerintahan
malang
meninggal
tari
##dukan
sua
qur
##mm
##duksi
dingin
amat
mengingat
tekanan
mimpi
asu
berak
dikem
deposit
dikatakan
kari
pab
tulis
hutan
##encana
disam
berkaitan
##jen
bokep
februari
iya
##rawat
##stiwa
dampak
kehilangan
kema
perasaan
##kok
diantaranya
menda
seharusnya
gatal
latihan
termurah
ratu
diak
ketahui
##lesaikan
melayani
##alan
terkena
##sor
nantinya
dide
seper
fit
windows
##riman
mantan
pemuda
beragam
dong
##manan
##datan
##bunuh
##duga
memi
dikirim
cewe
salam
samsung
##yer
kontak
lawan
mic
belanja
##arah
infe
real
tampilan
tel
arab
##mping
##12
##suki
serangan
##kumen
ambil
ste
lahan
##los
umur
jalur
saham
memulai
cooki
##wai
mengembangkan
seputar
wal
##pengaruhi
nik
##xy
rin
##luan
pengiriman
##curkan
hadiah
yah
gagal
pasien
##tual
dipu
yogya
##rti
juara
##terian
berfungsi
kine
##tengah
##sifat
menyampaikan
meter
peristiwa
bet
##ode
##riksa
potensi
##tong
keinginan
twit
terpi
##impinan
bersifat
kementerian
cm
##watir
digital
kesulitan
pendaftaran
##ombol
caranya
##omer
##wujud
rut
anggaran
karyawan
gitu
dilengkapi
jokowi
gula
berisi
km
##puk
##cial
lazada
##lana
ala
##ull
membahas
suasana
wali
puasa
membi
iz
##ys
sepeda
memanfaat
direk
dimaksud
garis
trik
melanjutkan
singkat
berbicara
pemi
bal
menambahkan
31
sebaga
diterima
##tinggi
kawan
gara
pengelola
##teng
inter
pc
memer
##siapkan
detik
ditambah
profesional
##dungi
payu
keterangan
##uasi
tertarik
tombol
permu
ping
software
##omatis
##sin
##batas
anaknya
kitab
twitter
sing
saw
infeksi
melu
om
fokus
entah
##con
2009
pung
doa
inte
was
lom
##waran
lar
target
diskon
bawa
telur
##baiki
memas
dip
prem
ibadah
didapat
##jangkau
artis
##piah
##jutan
jl
tergantung
unsur
##sihkan
service
mengubah
ari
shalat
komunitas
cita
##gin
generasi
perdagangan
##use
yes
membentuk
kayak
kelebihan
berpen
##88
domino
jah
market
imam
dokumen
sebagainya
terletak
rupiah
keben
pake
gre
dimiliki
##dget
##ungkinkan
sara
syari
cookie
gor
##lot
it
memutuskan
batas
##entingan
##bobet
terbuat
black
##vidu
kerta
##jin
tanggung
##tansi
khawatir
raha
situasi
ulama
republik
tren
rangka
banyaknya
bangun
pastikan
##ransi
##sihan
liburan
penampilan
bingung
pikir
##insip
pengen
rutin
pemesan
tab
vag
individu
detail
##cel
500
memanfaatkan
berani
##bb
pari
berang
singa
mengon
kereta
stadi
jangka
##lisme
##trak
teori
resto
mil
yogyakarta
city
temukan
##tir
##ferensi
fir
cust
kimia
vari
ujian
pemilihan
menikah
cap
betul
by
bakteri
live
menyenangkan
adi
kinerja
diambil
cewek
kenal
elektron
##lapan
##pasitas
prinsip
hasilnya
##hip
lampu
pokok
pelatihan
ujung
##bata
##wisata
angin
##ic
##larang
##arang
teh
pd
tag
sbobet
distri
##kini
##isme
##nas
kekurangan
##kusi
60
kue
internal
respon
neg
##produksi
##bola
##lm
sadar
otomatis
serikat
star
petu
##ahaya
mengajar
beng
full
##gup
pastinya
nonton
iden
pur
ketentu
bertahan
status
konsumsi
##datangan
##lari
perbuatan
dik
kalimat
##batkan
keme
kertas
melainkan
##nah
bukanlah
##ater
kepentingan
##lahirkan
hand
##lok
tes
##lihara
puncak
bene
##kala
pengaruh
##matan
kli
peralatan
rusak
kemalu
dalamnya
##tifikasi
ps
pp
##dengar
awalnya
gala
sebut
sebelah
lemak
berkom
option
audi
transfer
tulang
##utri
jari
##bunyi
##ensi
alias
##ritakan
berla
##dasi
berbahaya
berguna
mobi
rahasia
dosa
memungkinkan
top
##daknya
##tahun
smp
adik
##pik
suku
kecepatan
kotak
kencing
mengatur
berusia
ketentuan
kampung
##dayaan
##likasikan
pemesanan
mengo
dit
timbul
muka
##gur
mirip
lepas
##ii
bicara
petugas
tenang
##cepat
bakar
##oritas
berakhir
##ins
dige
tni
permasa
beta
apar
kemati
##hasiat
maju
kain
periode
belanda
korup
##tivasi
kes
grup
altern
payudara
pembaca
kebiasaan
##intaan
nyeri
jak
##ual
##urusan
memastikan
madu
##ungkapkan
ev
##cis
##oris
hebat
##gis
batik
##tani
swt
##rand
rekan
rapat
sektor
mengerti
komisi
sekedar
sipi
word
silakan
sepertinya
bogor
kumpulan
penjual
serius
pandangan
##tk
melang
bulu
##gum
semes
##intah
kea
##jata
pencarian
risiko
##atera
ria
##lal
plus
pabrik
sisa
##torial
##puti
miliki
aka
##gini
##ld
##sap
adapun
bibir
pertanian
terkadang
keta
hangat
langit
bero
pembelian
tuan
##chi
##press
halus
gelar
honda
malay
bahagia
indo
teks
unggu
diet
ditun
pega
enam
##riksaan
##intas
sosok
pendek
hadits
forum
ganti
##siasi
##kuat
##pul
miliar
ungkap
##sangka
izin
##gaja
mbak
keba
pemeriksaan
##low
membayar
##dahu
sera
bbm
share
memerlukan
budi
##bol
jog
menampilkan
er
dp
alai
meri
lomba
cairan
##patkan
sipilis
wo
telepon
cahaya
##nu
may
menjalani
kontrak
mandiri
band
bp
##jungan
travel
##rut
putri
beserta
papua
##dhan
malaysia
keha
persi
salu
##kasih
china
ulasan
solo
tegas
pember
sarana
##lajari
##ponen
##jun
berdu
ker
##ampi
prote
lembut
##lly
persa
##vori
sore
gas
turut
dgn
##busi
aspek
diing
mam
kematian
##bum
semarang
ir
##juh
berte
berj
nutri
terjadinya
keper
level
suci
nas
cang
##kam
red
mengunjungi
pere
dinding
kaca
##jabat
35
yesus
##bilan
penum
dada
saluran
##amilan
dikar
diha
celana
urusan
rom
makna
##lapak
panduan
padan
penerima
fas
2008
pelan
diantara
kemaluan
lucu
ujarnya
sex
kerusakan
##bad
mesti
##ny
gon
komponen
##yangan
sampah
##pany
permasalahan
memasuki
##liknya
##uruan
alham
##ginya
kampus
pernyataan
##cil
mengajak
##tia
dibawa
alternatif
mencu
##cal
administ
##daran
jerawat
sul
gampang
segi
kaos
demok
sumatera
sanggup
haji
lun
##linya
mengisi
posting
hat
emo
dol
fol
##lengkapnya
##tau
##gahan
hah
lebar
setengah
##stru
##tm
##porkan
32
mendorong
##antikan
ditulis
menyimpan
off
ramadhan
premi
restoran
mempengaruhi
konten
36
##sisten
45
jati
kapasitas
##ep
berbasis
2019
##poli
semacam
##utan
segar
kede
melewati
objek
mur
more
menyelesaikan
gimana
usai
puas
tha
regi
app
elektronik
oh
ama
babak
ucap
global
mengk
##kunjung
pertam
##ripsi
menolak
don
agung
ger
harganya
peda
kemu
198
setuju
memak
ref
permintaan
alhamduli
madrid
bri
sus
read
promosi
pelatih
##pit
##yanyi
yu
bertambah
sengaja
luma
lum
koleksi
pengan
hit
korupsi
perilaku
selengkapnya
tutorial
favori
pasang
ele
marah
##derung
kakak
kreatif
##temen
kebera
##yakin
sebaliknya
mendaftar
berkunjung
##yung
begini
##capkan
pence
kebenaran
##butan
cenderung
kerajaan
disampaikan
##enakan
format
##kati
what
jerman
dewan
##uskan
##intai
narko
lirik
perintah
dilan
multi
bit
server
##siapan
malu
dile
menul
system
02
kunjungan
##kes
##tahankan
padang
psiko
pegawai
tuh
otot
penghar
##10
##stitu
time
ur
terbatas
setidaknya
gere
album
##laki
sepen
all
lho
power
kompetisi
##diaan
murid
bertanggung
membuatnya
binary
##lenggarakan
nutrisi
##liner
era
kala
pejabat
memainkan
micro
line
inde
yuk
##tos
menghindari
##sahkan
##ty
meliputi
cor
biru
##ritahu
mik
berbentuk
batang
kewa
##sek
isra
##sing
terde
##pedia
harian
melepas
nanah
hehehe
sejen
menerus
##hion
tersenyum
bandara
analisis
##gon
memperhatikan
plastik
##mai
##odi
spi
perhatikan
drama
oke
melam
aliran
asuransi
menghubungi
terpen
pemberian
menyebutkan
putra
customer
##lash
sekian
penghargaan
##nam
##sus
plan
##uhnya
united
huru
parah
anus
##gasi
galaxy
undangan
cabang
##zu
##wayat
menyerang
ade
makh
##cy
melindungi
konsul
inginkan
natu
##hitung
##ons
massa
harta
##rom
##aransi
kenya
dikarenakan
gereja
kolam
##tempat
##ktikan
kepercaya
buang
##kening
mewah
kehamilan
##pol
memperbaiki
##luhan
rekomenda
jaya
games
perso
youtu
ratusan
temen
##des
sewa
negatif
jogja
lelaki
80
back
terimakasih
##aksi
tour
mobile
blu
kuning
ucapan
rekening
##angkan
##tongan
permukaan
vagina
suhu
favorit
dapur
alhamdulillah
##jiban
##ani
besi
##bot
lumayan
##tok
terbi
##binasi
mengganggu
melahirkan
ino
##jahtera
final
##kibatkan
merek
##dap
##rap
struktur
persoalan
01
el
##kapan
##ikiran
sembuh
##indahan
pembah
ragu
##atuan
##ress
menutup
terjangkau
perjuangan
ita
huruf
mengakibatkan
##kis
terli
kelem
makhluk
##strasi
uu
disediakan
order
nur
baiknya
tung
instagram
diperoleh
kadar
bencana
menekan
gin
ip
klo
prin
dat
##bli
india
perban
dibangun
##mewa
##by
sudut
kebaikan
lemah
ton
##ork
kepercayaan
penawaran
##taan
usah
ajang
semi
menderita
##llahu
dri
kucing
seja
peduli
##gih
tujuh
key
sapi
##word
kuri
##bek
dibuka
##laim
##ahaman
kecantikan
##likan
##goro
##ith
kai
##tahanan
##struksi
fashion
lintas
ribuan
pasir
tarif
bau
ani
##jaman
penyelenggara
tiada
bung
##cap
90
sekitarnya
##ee
##ginal
staf
mengungkapkan
##lawan
maja
petani
aq
kepe
diduga
setia
berdo
diabe
##hubung
pengelolaan
my
latar
produs
##tap
marke
digelar
##30
pering
nikmat
militer
berangkat
hr
diber
##hari
masukkan
diter
##diran
##ale
penggem
##jangan
bawang
buk
menular
##ogra
emang
paru
bekasi
say
max
##bilitas
karna
lim
ramah
senjata
mengkonsumsi
disu
##dirikan
penyem
penur
soe
abad
fen
mama
jabatan
uji
khasiat
berbe
serat
##atika
hada
bate
menyia
perencana
##firmasi
##anda
##ake
perlin
isu
##toran
make
opti
70
seringkali
menghar
perum
diserta
perkara
ajaran
kuliner
##sc
youtube
ditandai
pm
kris
melakukannya
terbang
pemula
setempat
menyukai
##est
pendapatan
kewajiban
tutup
harap
plat
iphone
diabetes
nampak
##xt
serupa
##atnya
kone
sibuk
##gaskan
pedagang
##lengkapan
##luruhan
wordpress
kepem
lancar
terlibat
##tunjuk
memenangkan
motivasi
memb
jaman
dipilih
garansi
pasukan
kang
momen
##place
memudahkan
singapura
penasaran
bor
##sb
aw
sampe
##panyol
##liling
oper
##dirkan
##sisi
direktur
##ikat
##pal
simak
bener
##fisien
##pulan
prestasi
menyembuhkan
pesta
##ssar
harinya
az
pimpinan
petunjuk
pengusaha
keseluruhan
br
##pian
penem
menahan
##jir
03
kelapa
org
##cangan
disana
play
##doh
pk
ahmad
kenaikan
ditetapkan
original
resiko
sir
def
##ctor
perfor
medis
seolah
##jaya
masakan
alaihi
membersihkan
eh
hot
perlindungan
penilai
kolom
makassar
motif
##butor
tubuhnya
dibanding
##kulum
pemandangan
mengua
menilai
tertinggi
lon
chan
fakul
##biskan
diikuti
##dro
membunuh
medi
wisatawan
##inar
##kop
tewas
bersi
peringatan
melan
meren
prose
israel
bayar
event
##itmen
##stor
betapa
menata
sinar
impor
##sh
golongan
##santara
kunjungi
terin
kontra
bahaya
buatan
pemikiran
memin
fakultas
pemben
perencanaan
utk
lampung
pemilu
jin
##pisan
botol
keperluan
bra
##son
heran
##wok
##mainkan
dima
kerap
uk
pl
apo
marketing
paham
matem
##leks
33
##wujudkan
##ongk
##cian
menganggap
##portasi
##ction
tersangka
menak
pengadilan
bertujuan
##cek
untung
beban
marketplace
rusia
penumpang
stor
penja
berun
##balikan
lubang
epi
##gb
merk
##grasi
referensi
##lusan
sti
##guruan
##land
akadem
menyadari
berlebihan
terpa
berbuat
##illa
terkini
misi
##valuasi
pembeli
pemenang
##tisipasi
tantangan
jurusan
serang
pass
tindak
##vitas
praktis
menerapkan
keberadaan
mencintai
nen
mengangkat
dinam
kecela
persiapan
##rama
##fis
##chester
part
mengadakan
##tulan
##ib
##cin
baterai
contohnya
kebudayaan
dije
pembahasan
gaji
##ksikan
news
mencetak
mempelajari
##45
dosen
kecelakaan
300
warta
pariwisata
ikuti
dija
peni
##99
menangis
ditawarkan
dimen
hiburan
quran
##are
berta
ilmi
tolong
jaminan
offi
sesudah
kuasa
spanyol
##paksa
##pengaruh
ramai
kerjasama
##jing
ul
aust
goreng
##catat
novel
penghasilan
sayangnya
mm
2007
##hop
##ormati
##alog
##tren
eksi
##uro
bam
perbaikan
##rahat
##empat
halal
os
##ational
one
flash
##pah
televisi
##kot
memasang
champi
##sahan
cok
nusantara
manchester
kehadiran
##blikasikan
administrasi
cream
merawat
italia
##oo
surga
##terior
##kirakan
##umur
##bor
keindahan
biji
lea
fu
dic
menengah
stasi
cp
formu
cipta
sabar
##erang
gua
ketidak
##tp
disebutkan
copy
penurunan
wu
spesial
col
gelap
xia
anc
ibnu
letak
##dz
dikena
shal
tom
pemahaman
##gat
roda
didik
katakan
note
##day
sedih
pho
puluhan
##yaratan
sholat
antaranya
tersendiri
ven
kosong
kesan
pani
ayo
##kenalkan
iman
##gni
perjan
##titas
##pos
##dasan
##rasan
penilaian
memben
##kalan
seiring
gempa
sri
iii
##ai
seleksi
memesan
197
transportasi
lapisan
pame
lebaran
val
##sea
cina
perlahan
narkoba
cin
berdua
menonton
bre
distributor
bijak
##coba
kenyamanan
##unggulan
persyaratan
##cipta
produsen
jutaan
tp
##lamatan
enggak
berperan
perguruan
memandang
bermu
jujur
##11
perjanjian
dirasa
kg
dipercaya
bukalapak
konf
keunggulan
pindah
hanyalah
tro
menginginkan
kekuasaan
die
relatif
pero
akurat
mikro
pangan
selu
ilmiah
jadikan
pihaknya
user
dida
##rel
##tip
dprd
##bakan
stasiun
ty
char
insya
##sent
austra
dki
ginjal
potongan
asy
mempertahankan
tangerang
mengerja
##kakan
didukung
lidah
##amu
lulus
##fah
menyajikan
protein
ditentu
##lallahu
dimainkan
pertim
material
profesi
menyiapkan
menggan
mengak
adat
##stian
pintar
palsu
##don
desk
point
##rampilan
##lokasi
halnya
ditentukan
rapi
menguasai
sepa
kelah
ima
##ias
rekomendasi
##sapp
vis
matematika
coklat
##pres
tangannya
sangatlah
kis
##presi
visi
##tangkap
garam
menggam
berjudul
lantas
kepoli
pacar
sula
merang
menjelang
pendukung
beras
jaga
desi
seksi
kelahiran
##inggalan
##mantan
##tn
##posting
07
##ning
##sialisasi
menurutnya
mero
mengucapkan
mitra
penyi
kepolisian
dasarnya
kabel
##tungkan
##com
disertai
##rs
##vis
son
genita
##stis
peneliti
group
menghabiskan
##mpah
hidupnya
kombinasi
semester
berde
09
sis
istimewa
senanti
whatsapp
ideal
kalimantan
pembuluh
dibaca
dengar
efisien
timnas
aneka
##wesi
peringkat
##lie
pelajar
kepadanya
handphone
##tawa
##ukuran
senantiasa
kebetulan
hakim
chi
terdengar
##unikasi
pidana
klien
wil
##canakan
karen
riau
selaku
memo
shi
pele
##lex
terapi
cd
hard
chat
fenom
dio
pemakaian
dak
##arch
sepakbola
merusak
##ilis
far
wis
australia
##pes
##ess
##samaan
miskin
koord
hamba
surve
berce
jaket
##atut
##win
melun
brow
ekst
tok
tepatnya
arus
panitia
gram
world
banjir
##wali
melibatkan
mental
##zz
kpk
##rapan
##langi
kebang
tutur
seg
leher
melem
properti
gadget
dipan
kenda
hap
kurikulum
bata
penggemar
wajar
paha
liat
pendekatan
cuci
bursa
##ternal
kemajuan
radio
telin
196
basah
##lanja
##panye
diperhatikan
##caran
kompetensi
hd
##tana
sayu
kristen
##coin
cerdas
##harga
sejauh
best
##bri
##king
bukit
domain
blo
masak
##zah
##waktu
pecinta
##emen
cha
hai
htm
champions
gila
keju
##urnal
lambat
##tangga
simp
##hin
swas
rangkaian
##tle
binatang
cowok
##form
vie
operator
ring
##gue
menceritakan
##13
sulawesi
##gp
menyang
kome
mengirimkan
mine
##salam
bas
has
sekalipun
##berry
##rancang
memasuk
pantas
sport
janji
kepri
matang
swasta
blogs
master
##stitusi
berkat
gudang
sesama
diskusi
renang
##umkan
kesen
topik
besok
##uda
##roh
##struktur
patut
mengumpu
dijalan
kejah
memegang
##kup
menghan
tipis
teratur
inspirasi
04
05
xiaomi
majalah
##jer
dice
##hitungan
musuh
mengakui
jembatan
##wakilan
##80
minim
lengan
kele
papan
##celona
rahim
tidaklah
##liti
asa
sto
beredar
pengh
tanjung
##gilan
##count
diminta
center
psikologi
liver
mulia
barcelona
##ture
with
kelihatan
konflik
jenderal
akal
mekan
ibunya
150
kerugian
tk
bunda
teknis
menyen
sepenuhnya
mengumpulkan
tumbuhan
pasca
rasul
##dikan
html
penda
nera
pinjaman
dipublikasikan
pasaran
tarik
maska
prosedur
satuan
yam
##hol
jitu
kekerasan
niat
kekalahan
##cker
sipil
##sion
cua
ky
mewujudkan
roh
##una
##aminya
upa
terbentuk
ketur
##teran
##uruh
book
label
kedalam
kejahatan
soalnya
##boh
bim
diku
nenek
kebah
tunggal
##vari
##galan
peta
ancaman
perwakilan
cpns
##zat
alum
putus
simpan
pran
##inaan
dihasilkan
berp
##dong
pesanan
crus
membuktikan
tokopedia
unggul
browser
rea
rokok
lantaran
hemat
anim
senyum
##balan
wartawan
lamaran
ist
blogspot
chel
head
34
kacang
##batasan
maya
kelurahan
##mail
krim
kuda
memakan
fat
mendo
edi
meni
diadakan
##bira
menguntungkan
ngo
pemasaran
keempat
disem
mengenakan
dici
pay
disim
jama
mengerjakan
strategis
##tindak
reaksi
##lakukan
##hid
canggih
berk
##basan
keberhasilan
##onya
##minal
diinginkan
palem
polres
##dha
##panya
nafsu
masukan
##bitkan
ikh
pengaturan
menatap
##dor
dikembangkan
##kator
chelsea
##sentasi
##uaskan
mempersiapkan
##urat
##kada
##teraksi
bandingkan
terjun
waha
broker
berni
sari
identitas
bom
##ind
penerimaan
##tic
##kuan
pengam
tertulis
##sat
##rde
##pool
ketat
keselamatan
kemudahan
upacara
banjar
cetak
berbelanja
menyambut
##board
minat
jelly
##sesuai
##gasan
##sm
loh
lari
bea
reka
bos
mengingatkan
pentingnya
tersi
ant
##ping
##ampuran
kandang
klas
##sesan
##cm
##uncu
ketem
tukang
dimanfaat
nikmati
rahmat
nasa
konser
##soft
##stal
hukuman
pasalnya
mengalir
sampaikan
##cun
kemana
terlengkap
##ulasi
gizi
eksternal
##pad
bitcoin
##eh
bel
berdoa
sebentar
##bai
emosi
karenanya
amal
hol
##ota
sekret
warung
regu
tali
##tapan
berkurang
06
bumbu
telinga
fran
riwayat
membagikan
sik
penjara
##wanya
slot
menegaskan
##less
danau
##rumah
##kung
syariah
box
menjamin
saksi
##dalkan
jamur
tentara
dimanfaatkan
terti
kambing
kr
misteri
batam
festi
tante
biarkan
mula
dialami
kedatangan
hik
pembi
matanya
kampanye
menggelar
kesadaran
karir
dikeluarkan
kpu
keman
##galaman
ditanya
dipen
##stikan
amin
konsultasi
##tribusi
grosir
menghapus
memasukkan
busana
kebo
maskapai
koneksi
cuaca
menghadirkan
kemerde
gb
qs
wat
pertahanan
##plo
##xi
kalinya
perlengkapan
stream
sayuran
kapol
dih
bersamaan
rt
dinilai
did
festival
berpa
berhak
##kia
sendi
yamaha
pengawasan
puluh
mengontrol
##blem
##lor
kum
kasino
kekayaan
muse
seakan
palembang
##bes
taha
lolos
##umumkan
##yakan
teroris
tenggara
##uasan
##darah
2000
memori
berli
reso
mineral
santai
bagikan
ong
sewaktu
dira
kebun
delapan
berharga
belakan
##inja
##kuk
gamat
tablet
arsen
##janya
tat
long
dera
inovasi
keturunan
moto
zi
love
nasib
##had
pembentukan
brand
shallallahu
tebal
makanya
smk
crusher
dipastikan
parkir
pandang
memikir
menyusu
##lip
memuaskan
interior
dilarang
mengga
beruntung
panggilan
misal
berki
mencak
##kk
##gakan
keda
sekalian
##cerna
##lombang
stadion
sunnah
ras
##lamatkan
inti
37
hpv
dikuti
bersem
aset
instal
trili
##oner
sejenis
setan
pertimbangan
##ish
##kitkan
##jolan
mengganti
waktunya
kong
firman
tol
angkatan
berpengaruh
hatinya
konsisten
ceme
##alkan
dikonsumsi
##yatakan
museum
mencakup
kemerdekaan
keterampilan
##inisi
seminggu
berukuran
orangtua
kekasih
##yakinan
jelasnya
gal
##yukur
dimin
diterapkan
##ema
##fikan
##arikan
malai
gelas
menetapkan
elemen
##gir
##takkan
akar
tertawa
##ender
##aler
bersang
berin
ngga
demokrasi
sasaran
komitmen
##dio
dikutip
sastra
jun
2006
mega
semata
diatur
riset
surel
stadium
toyo
pengurus
problem
mengalahkan
lomb
ron
##pulkan
##wancara
##gri
fenomena
run
bersyukur
polri
belakangan
##posisi
janganlah
performa
dinyatakan
##plin
van
tajam
evaluasi
tercatat
penyimpan
##seku
##ens
pilkada
##sip
suaminya
##arisan
##katkan
##lity
penyedia
kenyataan
perumahan
bersangkutan
##lauan
statis
istrinya
hormon
login
seng
privasi
pns
praktek
mendengarkan
malaikat
metro
##gihan
##teksi
beriman
jeruk
dibilang
mencat
##bok
sty
portal
sidang
didapatkan
ski
rumahnya
##fik
type
setahun
dijelaskan
pencu
roma
hindari
punggung
euro
seminar
lombok
yahu
triliun
sabung
pisang
##tat
##back
mengelola
penangan
##simpulan
gerak
campuran
##volusi
spa
##jana
green
umroh
##madi
tb
hy
##jurkan
##iland
bone
##asak
toyota
menyi
penonton
##kita
menyaksikan
##21
hahaha
menangkap
seku
streaming
sila
pura
ketemu
password
##lihatkan
gambaran
kebahagia
bangga
dest
##ley
bio
menangan
berjuang
diselenggarakan
berkon
thailand
berpengalaman
##qq
blue
sn
keputihan
panc
##kerjakan
liverpool
pengum
perpus
platform
##onan
kega
ayahnya
kek
mutu
hobi
syi
##ilbab
biro
jurnal
kesejahtera
##pertim
puisi
nis
terdekat
logi
99
microsoft
pensi
##git
mr
kesuk
klin
padat
kron
cedera
menyentuh
siapkan
##tupi
asi
finan
hin
##golong
anjing
she
terpaksa
indikator
kajian
diperkirakan
menghen
##cor
ed
##cle
open
adam
sesi
rute
##news
pandai
##mulasi
38
mengakses
##teria
##kos
keluhan
##ografi
memikirkan
##hadapan
meta
##77
lelah
##60
##sitek
##taruh
##fan
terlam
istana
kesuksesan
2003
klasi
##sentrasi
##tive
##takaan
memicu
##jakulasi
https
55
##jum
memasak
menyebar
##doman
##ror
kesejahteraan
##mbang
berken
kebahagiaan
infra
tiong
##tifkan
kesimpulan
##que
campur
menginap
##sain
ct
depar
investor
##nc
menuntut
yahudi
kara
39
serba
gelombang
##gno
kian
over
dihi
##campur
sarapan
##bda
keyakinan
temannya
siapapun
##ort
trus
derajat
hadapan
pelabuhan
pelanggaran
apple
##pertimbangkan
##rih
signi
##bau
2004
##tarkan
saudi
##waan
mudahan
volum
roti
potong
bersaing
mengajukan
design
indra
milan
rupa
menum
perhitungan
sinya
aki
##ney
oksi
disamping
##ls
sallam
##amkan
##para
flo
##terol
ejakulasi
seberapa
jeng
arsitek
rasakan
##int
fer
##hn
kemasan
tetangga
damai
##ily
##yakini
bercerita
inten
##ike
##gerakan
sate
intim
perke
depok
usta
lapak
bintik
opsi
tahapan
##velo
bertindak
manajer
berhati
lunak
##40
sepuluh
berulang
angkat
##zer
pesantren
##rika
karang
mendidi
##iasan
klasik
murni
kompleks
75
lulusan
##dk
diluar
##way
memimpin
store
pendahu
##ometer
penang
mendekati
berdarah
penun
bac
##kur
walikota
##enya
pembicara
kebakaran
##honan
core
perdana
optimal
fin
##uth
##mudah
##itung
klasemen
sayur
menangani
dijamin
kul
urat
pop
##fsir
pengumuman
fans
team
250
##ous
kebersihan
kasar
day
bersabda
kecewa
##boleh
analisa
senya
sinyal
##feksi
ikatan
##iner
##ffe
akibatnya
##usan
dugaan
##potensi
##ward
##wakili
libur
cakap
pecah
##allah
mor
##gantian
##22
kelak
perpustakaan
adil
##tifikat
tertutup
kepuasan
menempatkan
##cess
romanti
##karya
penyimpanan
signifikan
furn
##kitan
cur
edisi
##jatuh
mener
benjolan
penerapan
2005
tambahkan
terpilih
international
auto
aktifitas
aro
logo
beasiswa
##nia
##rem
##lesterol
nafas
##deng
bervari
##ingat
tersebar
edu
melepaskan
diisi
mesir
tabel
arsenal
telkom
ruas
atm
padanya
melaporkan
ditangkap
baku
pameran
search
rupanya
keluarganya
high
##op
##kira
##ef
premium
jahat
kedepan
cs
wahai
##prediksi
menyim
##asila
dilansir
stro
##bisnis
menolong
wujud
berkum
##usung
profil
varian
##omotif
tre
maksudnya
terlu
manual
tampaknya
kb
prancis
usus
pancasila
cre
##maian
##paran
penyelenggaraan
besarnya
400
volume
##rani
memanggil
##bunan
malas
ragam
penanganan
##ikh
mail
##loma
##lindung
supp
than
##carkan
haram
tenggoro
modi
ai
##itor
aduk
urutan
menyeru
##egara
##lil
his
raga
dirilis
ditam
##sy
banyu
next
ahok
##15
##lid
terdaftar
iq
cerah
##sium
dakwah
seanda
single
##venir
menggambarkan
##ue
dicari
simbol
instansi
saatnya
seandainya
kolesterol
dolar
elegan
##work
sper
obatan
instan
##mpun
skripsi
sou
pedoman
menghitung
test
hidung
aler
##cc
konfirmasi
085
##cet
##lish
akuntansi
perekonomi
pencerna
##deka
##del
melanggar
page
##bd
kepulauan
zona
konven
sala
ditutup
##bungkan
memproduksi
jack
##atikan
istirahat
##nn
mall
neraka
baja
##lanjutan
##sity
lipat
##ganan
eko
##pakatan
keri
##gy
jus
##tutan
##dr
merubah
raksa
rele
kaget
mengembalikan
agan
demam
stabil
##cher
dikun
iv
idul
##ining
cho
bareng
dirasakan
##jalin
fri
ekor
##limin
selera
kencang
stres
mainan
penyanyi
disesuai
audio
##bolehkan
sofa
menyesuai
pondok
anime
##usuk
isinya
##wangi
propo
park
impian
definisi
wajahnya
kesepakatan
sena
##gro
disesuaikan
##kandung
perekonomian
jas
koperasi
##yal
##cs
kotoran
lg
dibagi
penipuan
romantis
##ssi
##zuki
gonore
44
terlepas
inst
pencernaan
les
penulisan
koran
surya
sil
operasional
nada
##darahan
##uu
pemasangan
##curan
rat
pahlawan
infrastruktur
##ikkan
##sepsi
natal
##pri
berkena
pub
kritik
mengundang
42
##oksi
##gunaan
destinasi
pertar
##onel
tribun
visual
dewi
toi
##rator
laku
cro
tuju
ere
candi
perjudian
adu
persaingan
##namen
##kanya
tahunan
pengenda
##alisasi
akh
water
mempermudah
show
banten
fun
lurus
pramu
pendahuluan
periksa
kriteria
dor
sabun
rajin
offline
body
pencegahan
##landia
call
disaran
leg
memperkuat
##usul
##badian
menyesuaikan
life
ktp
diposting
syukur
##zen
makalah
wadah
mac
lemari
terpisah
##br
apotik
rs
##bio
toilet
menghentikan
##bowo
keterse
memeriksa
##ombongan
episo
bibit
permo
bermacam
pengolahan
der
batuk
seragam
##janjikan
jur
apartemen
disarankan
dengannya
mempercepat
##jub
merdeka
konstruksi
formal
yaa
##loh
pam
dikenakan
ceritanya
wang
atap
player
raksasa
karakteri
lambung
jat
pembuat
bosan
##pasan
tool
cy
##oni
kontrol
##riah
form
akrab
kepemimpinan
moral
mani
fisi
bangkit
kl
##komendasikan
disajikan
##liharaan
pencari
bunuh
spon
gold
fc
skala
kompas
buruh
bervariasi
kursus
qi
kotor
##rahim
manager
bli
##hiri
##jil
menar
erat
dealer
tergolong
##arahkan
##lunya
dibeli
sensi
##rifikasi
tal
telan
fase
##emat
persis
terpe
hijab
pom
mengejar
clo
down
penyu
keadilan
##bahas
departemen
gel
palest
##gukan
kelainan
menyusun
##hab
dirimu
cle
sediakan
sepi
pdf
##teks
hosting
berkas
mayoritas
dirancang
dibayar
tuntutan
syah
menyerahkan
munculnya
fam
otomotif
berkumpul
##ject
kuno
cup
dihu
pakar
kla
nikah
persero
agenda
senyawa
resolusi
##fal
souvenir
tautan
menghargai
kil
vital
dilanjutkan
asian
bermo
kebebasan
tinggalkan
robot
pemban
mencuri
gitar
mengajarkan
terjaga
mengonsumsi
ana
##utkan
##atik
##guk
intinya
comment
##enap
##dh
pot
##kelom
##kulasi
sejati
trader
##bia
porno
berencana
##stro
cash
abdul
ketinggalan
perce
jamaah
genital
logam
karakteristik
rilis
##ura
##kuh
##kanlah
ngom
blok
nature
##orer
obyek
episode
wawancara
haha
turki
##jinan
tenggorokan
##hani
ramuan
dro
membuang
jilbab
bersedia
mengecek
bertugas
liter
kyuh
kegagalan
bulat
ditampilkan
andi
pendiri
##lihan
pengelu
##asis
menggo
pergerakan
sosialisasi
perten
sema
##proses
disiplin
##batasi
bersikap
ditemui
alasannya
##tasan
fitri
##ching
kyuhyun
waspada
gawang
dikunjungi
dikerjakan
layaknya
berdampak
3d
##zo
panggung
48
penyembuhan
##kad
blackberry
menempuh
planet
sambutan
ekspor
penen
kenangan
##bs
stock
like
terpenting
##cd
tempatnya
karet
64
menemui
kuota
baris
mone
prioritas
hasan
##tannya
ronal
naskah
esa
palestina
liar
afrika
bukankah
gede
ketersediaan
support
abang
##kelompok
bahas
##max
##cus
1000
laman
warn
43
##entasi
lee
##minat
##usuf
diakui
instrum
terje
##won
trend
alih
##mpin
mie
dipang
villa
gini
card
tete
masker
memot
umar
jawabannya
asyik
##tanan
sandi
develo
mut
pengganti
yaya
alex
##rb
gagasan
jambi
merokok
dipasang
lis
##malkan
kendala
juven
##tamanya
jalanan
muk
ent
kafir
dipenuhi
membedakan
hmm
##nel
tepung
##atori
perayaan
sertifikat
membiarkan
berna
tru
grand
##sun
##play
citra
terkejut
##km
profit
lanjutan
dimensi
##lementasi
berlari
cover
penan
##bicarakan
##ded
berminat
ganda
senior
nokia
sekretaris
bendera
##mbing
kantong
##zim
lembar
praktik
##layan
##bari
maje
beroperasi
engine
##tain
##ruan
nara
menggi
terbar
##wen
##dri
alergi
redak
fotogra
##vas
##mun
keah
atlet
##ologis
demikianlah
mengenda
tho
juventus
##gre
##fie
##bingan
##my
hel
pembukaan
##jutkan
##cking
durasi
cli
melebih
##aker
##popu
ngen
cak
##mani
bir
bersen
diciptakan
##bara
##ongkong
kudus
sembilan
perbankan
truk
swe
##putan
tong
pengambilan
presentasi
pencipta
lezat
##geng
pupuk
##rau
##taka
mba
##lakuan
memperlihatkan
##ahi
berumur
##imbang
##karno
mainkan
limbah
berdi
##kasinya
disukai
ereksi
bios
geng
adegan
dome
mencatat
mundur
##bukan
##tran
kakek
dang
pengeluaran
menanyakan
trip
kecer
dili
tangkas
aksesoris
shop
mendadak
ago
gembira
##lurkan
ngomong
aslinya
##raksi
item
##formasi
penambahan
terkesan
##orban
dikon
sebutan
##sau
menyelamatkan
##madiyah
dibahas
##kisan
menghancurkan
gus
##ves
diangkat
46
mematikan
##dayakan
bertan
wido
##lier
memperkenalkan
semula
pesat
laba
mendirikan
statistik
tempo
125
##tiga
merugikan
butuhkan
lip
menca
membandingkan
pembun
gmail
membo
university
##misi
kelemahan
repot
menyerah
pembinaan
##aan
sesa
##iture
didirikan
pengadaan
chip
anal
##000
memelihara
##atorium
boneka
variasi
organik
##kw
##undang
sekadar
##kab
65
##lusu
##cha
41
##ript
dipimpin
gili
kepribadian
dapet
kesi
manu
##kirkan
bis
##tumkan
check
##dot
vol
kit
tujuannya
stok
##lainya
mengharapkan
mb
club
setting
bimbingan
berlalu
##eka
utamanya
wawasan
sperma
sb
racun
memberitahu
arena
social
tela
tdk
stroke
led
cair
sekira
muslimin
dibentuk
asus
##cahkan
ditujukan
zakat
##watkan
training
human
unggulan
kerajinan
spor
rumus
##ilip
##askan
mum
##ence
##inah
dijalankan
##coran
permohonan
##jawab
patung
majelis
menying
##sias
simple
##wakan
terkandung
baby
didalamnya
dek
perbandingan
kab
kedok
##kosa
krisis
bacaan
##gunya
derita
iri
pusing
dir
ternak
tr
andalan
darat
##tolak
photo
pembunuhan
merin
terbilang
##jarkan
suzuki
hongkong
mewakili
ketik
47
memerinta
bayangkan
registrasi
##pti
berkomunikasi
jejak
mudik
kuali
pungkas
s1
ekstra
natural
membang
yayasan
mekanisme
##disk
##faatan
putaran
##lass
habi
perancis
##ktivitas
##dali
##tungan
umpan
merata
widodo
tepi
konteks
##imbangan
##24
##eran
terjem
sec
##ving
kesatuan
##band
sensasi
menutupi
usd
bodoh
##promo
league
cobalah
##33
kepalanya
muti
gr
labor
siaran
rus
tai
##rnya
gamis
##25
nusa
mendatangkan
sede
king
mampir
wifi
##pia
##litasi
grafis
dilaporkan
coke
utang
berga
##vin
##blog
aktor
konsentrasi
##masukkan
perah
bersu
terminal
##iskin
basi
melebihi
kedudukan
merilis
melihatnya
kembang
diajak
jepara
##jol
furniture
varia
ris
assalam
jurna
tanggapan
telanjang
bentuknya
kapsul
##lajah
cv
akhirat
baginya
larangan
patah
##psi
pinggir
relevan
ih
melengkapi
soo
##yong
big
pemin
rugi
templa
##xx
indeks
rombongan
##base
mencer
prabowo
jago
##zon
priv
##lusif
##moni
pekanbaru
berbahan
##mpingi
enter
##puni
not
##bud
pemberitahu
menyusui
terbit
belas
##tuan
ml
##cation
perman
printer
##akna
##sumber
dipahami
imbang
##lahi
tech
london
karangan
konvensional
##kohol
musa
##jumpai
premie
jumlahnya
url
##larkan
induk
apel
##sta
##ataan
ketakutan
cafe
pagar
beton
food
##sifikasi
dihar
##wenang
##cket
optim
menelan
##lihkan
good
koordinasi
awet
##ikmatan
keahlian
membalas
##aria
##potong
##kri
pahala
janin
##sanya
koko
topi
pemberitahuan
but
dicu
menganali
monitor
resi
vak
duit
membela
##gs
kristus
saf
herpes
tabung
ronaldo
modifikasi
susun
menon
kenikmatan
akademik
cokelat
##kainya
komplikasi
melatih
office
##ite
##18
##js
tunai
##hindar
qq
sendok
survei
turnamen
##cahan
selamanya
jung
perkataan
sanksi
bumn
##inapan
pengendalian
1945
##reen
##versi
##eld
##hoo
disimpan
bran
music
##pd
produ
santri
penginapan
hendaknya
berupaya
halo
panel
##zan
balas
sor
rol
debu
diganti
cry
terbiasa
##puran
keran
diakses
keting
##16
tor
dianjurkan
sdm
hadis
kayaknya
diproduksi
bocah
kontes
et
aroma
aparat
sempit
stop
ditangan
kecerdasan
kerang
terlambat
rou
usb
berpu
57
kola
##ene
ngi
##organ
dj
semesta
teran
tercan
subhan
##red
abi
wow
john
##ahu
##bumi
rumput
dimasukkan
pembesar
ketimbang
pengha
kurangnya
ditularkan
mendalam
##tamakan
iso
bakat
perkebunan
mengancam
##dentifikasi
agre
##gul
dompet
sensor
account
merencanakan
pelajari
gabungan
ever
lensa
##dikasi
whi
penutup
tara
ae
setara
redaksi
ular
##gelam
seme
this
##gerti
##update
##raian
##jurit
berpotensi
berkarya
melarang
##pl
sharing
##17
##ice
permen
kualifikasi
##tina
nyawa
##amat
##qi
plakat
49
tafsir
sebulan
pengantin
##ative
mutiara
##tujui
terbakar
cincin
penguasa
##cuan
sultan
naga
jajaran
islami
demo
menyaran
ilmuwan
kus
template
ze
formulir
##ffi
petern
bpk
diren
##wasi
kader
##ormatan
mengumumkan
ara
ms
hut
##cakapan
dollar
sendirian
under
ketinggian
adonan
bukannya
mengurus
ast
##lator
tambang
rencan
iran
serial
pokoknya
person
instrumen
ayu
won
##ongkar
rap
195
##rebon
mulus
susunan
##ungkan
pertun
##indo
menghadap
prajurit
berpuasa
##oh
saraf
rok
balai
deskripsi
bm
mempertimbangkan
pori
produktif
menyarankan
lamanya
sales
mg
jualan
##bunyikan
jang
diin
interaksi
meram
spiri
tou
bay
suplemen
divisi
mendownload
bekerjasama
dicapai
mantap
okn
penghi
##populer
bertahun
1999
mengham
2002
##uddin
dz
bercinta
mengandalkan
kepen
jadilah
kelen
revolusi
oknum
kol
indone
##vik
diriku
kosme
##zeki
depannya
terhubung
image
bua
ekspe
penyelesai
kritis
##cky
pertengahan
##uka
kepadamu
hikmah
lini
hawa
plu
##panjangan
sarjana
tempe
keluaran
size
bunyi
bergantung
##box
tersisa
makasih
mt
xi
hiper
komik
##23
penyebabnya
mengejutkan
ketu
ngentot
antu
abdu
pencapai
##iskinan
batin
##wijaya
ly
domestik
53
young
keliling
ekon
##wajib
peranan
##dhi
##sialis
sony
ritu
asap
ajak
rekor
pbb
oppo
hutang
anggap
memaksa
asupan
abis
memeluk
pangeran
bettor
hancur
skill
penetapan
menjanjikan
##rame
muslimah
berkenaan
##jubkan
bersan
bca
##aras
art
del
terganggu
laboratorium
sensitif
pinggang
rezeki
cri
tahunnya
memuat
tuntas
manfaatnya
##araan
cirebon
eksim
nelayan
diubah
##lamasi
informati
##plikasikan
pelindung
premier
lega
animasi
##turkan
menggantikan
diterbitkan
stress
trade
##jaring
pemanfaatan
gir
polda
klinik
nat
kelima
kemiskinan
pedas
permanen
padi
54
add
muhammadiyah
besaran
papa
dsb
##28
##oth
gat
terhindar
sawit
dg
berpendapat
56
dirumah
rasi
tiongkok
mix
##ase
##dih
tinja
berlanjut
rumit
distribusi
fung
berle
riz
##nes
##biotik
wall
beralih
menakjubkan
paris
##onis
dikasih
rai
spesi
membelinya
perikan
persatuan
perpa
nyaris
sembar
mengarah
kei
menghadiri
kutu
##ernya
davi
dv
##daban
tere
rencananya
qnc
semenjak
dur
pantat
perihal
pakan
perikanan
teren
##ekor
menggunakannya
database
pengakuan
infor
kedokteran
sawah
##yanto
menjam
lukisan
ekonom
pink
dialog
sino
##umi
59
soekarno
meluncurkan
oli
kirimkan
jong
las
dihadapi
terbe
hidro
apre
instalasi
##sari
kubu
melupakan
shah
##sehat
install
##bie
##seller
mendatangi
##leskan
mengendalikan
berganti
opini
studio
langka
berhadapan
follow
buta
segalanya
style
makam
##muk
melangkah
ctrip
menunjukan
ikhlas
##dahulu
keram
perahu
seribu
memadai
berenang
##yono
##gapan
beragama
betting
pembagian
drive
antusias
##itasi
##resh
ditambahkan
rental
gajah
house
verifikasi
##eni
hong
pencapaian
klaim
menjalin
panen
putusan
##lib
pemegang
dosis
##urce
rindu
suar
pesi
##poker
gul
peradaban
primer
sifatnya
hantu
##turun
sejenak
tawaran
nasabah
##uansa
##kiti
##fu
##gau
ekstrak
sopan
kapi
unduh
control
etika
driver
jagung
sertifikasi
tertinggal
##ukakan
tembak
perna
ucapkan
reli
awak
##bn
##safat
ungkapnya
dou
berkah
hihi
dipanggil
tukar
##siapa
##torat
gur
pln
york
##daranya
##pt
##19
##yataannya
jelek
kiamat
##mark
##sankan
##ink
##link
ritual
sajikan
tertera
yahoo
##lima
mc
fungsinya
##uge
palu
##ayakan
managem
separ
alumni
edit
berkomentar
penyus
glu
diken
52
kosmetik
kalori
menyangkut
ikutan
hyun
lainya
bambu
kesayangan
seekor
pengawas
dipandang
menyelenggarakan
penemuan
alang
##cia
tumor
##kiraan
jadinya
##artikan
oc
fah
##pam
pembicaraan
redmi
network
##tivitas
personal
kelemba
dikelola
ustadz
budidaya
##psis
##eme
mengeluh
##36
cuman
jikalau
koman
balita
menghilang
eun
berawal
norma
karpet
rid
manado
dalil
2001
tanam
##camata
kilometer
kemeja
85
berniat
supplier
##bian
##unculan
fik
pend
##ews
eli
600
tersem
mentah
##pping
disaat
mendidik
##klusif
bag
keseimbangan
kerjanya
memohon
##cks
diti
ubah
jodoh
ongkos
##sidi
base
harusnya
kho
va
komodi
kons
merayakan
works
ngan
aqi
folder
menghemat
buaya
bioskop
persaha
berfikir
membahayakan
otori
berfo
##lihatan
capsa
manapun
terdahulu
##ripsikan
mengusung
mengaman
inci
diturun
kehen
polos
##fil
##ilipina
angkutan
sejahtera
senilai
pipa
bambang
start
oksigen
##tulnya
balasan
pemo
fb
sayap
rancangan
flu
kontribusi
tuanya
##promosikan
maklum
menggu
upload
reser
##usiaan
cc
siklus
tahukah
inc
reseller
ay
kental
##ety
posted
##gnosis
mayat
##reasi
alkita
spesifik
kandung
oral
88
pensiun
sunda
pengang
sebabnya
##kt
mempering
mitos
fal
sebetulnya
jelaskan
wahyu
##darkan
ibrahim
persahabatan
kasat
diminati
terwujud
variabel
tawarkan
##dati
ditim
berdasar
antioksi
diben
hek
penyelesaian
viral
legal
meres
pemkab
##ky
##getkan
arsitektur
happy
tags
viet
##siap
berkali
spot
sedem
gerbang
##pasar
##engan
tingginya
ibar
institusi
kesal
bud
suriah
jema
isteri
##syat
qua
filsafat
##sianya
iklim
keringat
dibalik
##legal
minus
##ux
sesekali
yusuf
dikabarkan
servik
pelam
ngob
asma
alkohol
pelayan
antioksidan
##juran
tembok
jg
pedang
##lomba
sedap
##ans
darurat
port
dikirimkan
atasan
##str
menangga
berlatih
##tase
kompeti
pembeng
secepat
diru
indepen
lapar
dlm
pac
bara
contin
menyan
miss
usahakan
haid
##busan
batasan
andre
keberuntungan
abdullah
##impi
skin
menggem
##bahkan
jatim
##aknya
kakinya
mengukur
menyerta
##ement
kerabat
##kinya
bersam
liputan
utuh
usu
##gma
4g
##endaki
tenggelam
mencuci
huni
yunan
cerpen
legen
sedemikian
menempel
ase
##guhkan
ditempatkan
telkomsel
tingkah
##teriak
##parkan
menjabat
194
perak
hero
kah
tercinta
sambung
hij
movie
samar
mala
cent
dilun
aut
penyusunan
disusun
##lling
reading
sesaat
apresiasi
formula
##rasah
sby
bt
pustaka
120
##39
juru
kontol
berlangganan
menghubungkan
prosesor
tanyakan
bni
spesies
denpasar
zen
terpan
penglihatan
menuliskan
hiv
bandarq
berha
##aaaa
reformasi
apk
diajukan
rw
maluku
##okan
oly
arif
views
abadi
memek
keyboard
persetu
##itan
persib
##skripsikan
##dip
##pindah
##redi
##nan
58
silam
##lusinya
tiang
segmen
fisika
51
song
##wood
thanks
garuda
warisan
khi
##tizen
tercantum
berbahasa
serviks
##70
##bby
menyatu
ternama
##jok
ditung
menunjang
##ote
insan
komposisi
##tolongan
banyuwangi
terinfeksi
kn
hang
awan
##hap
diturunkan
metabo
sembari
##fak
meyakin
##winan
terjamin
madrasah
##brak
##datangani
seter
kafe
pertolongan
ple
pengikut
kk
bersalah
##lehan
dimaksudkan
pidat
menyerap
berolah
berpar
##fungsi
komer
bakso
salahnya
bertaruh
alkitab
##under
freku
nulis
poten
buahan
##oli
72
melon
mendu
##hul
membagi
##qah
lingkaran
##rie
##laan
bpjs
barangsiapa
tersa
menyerupai
kemanusiaan
penjaga
konferensi
##entina
pengamatan
geli
##iness
jumpa
##78
bertempat
##hool
##via
##sp
seli
rekaman
your
##ctv
menyebarkan
sku
bh
qiu
##chen
kelenjar
##sense
##wanan
##saka
##tarung
options
akbar
##ory
##gt
melancarkan
kronis
hidangan
##arjo
dicoba
menemani
vietnam
eye
##sey
##gamaan
menimpa
error
dani
sinopsis
dihadiri
yunani
mengamankan
porsi
hahah
mengerikan
hias
membakar
##rankan
##prov
jena
##guhan
kalender
kesibukan
mel
tampilkan
##dupkan
memotong
lil
gai
dimakan
vendor
fire
pertempuran
##masalah
tangguh
ungkapan
spiritual
menempati
berteriak
lisan
##rangkan
##list
sentuhan
vali
kacamata
0812
mutlak
terjemahan
##linan
seimbang
sepakat
##retan
berten
diare
##irman
rb
##wajibkan
##korasi
sarankan
73
tikus
rock
protes
##onegoro
spesialis
pembiaya
ida
gemuk
pelun
##temukan
tayang
bubuk
golkar
ngobrol
terupdate
menghormati
populasi
padaku
sido
##hai
##sty
banda
tetep
pengge
pn
berlokasi
dib
##yasa
enggan
##ature
##tegrasi
##duki
menonjol
pel
perdarahan
##yyah
orgas
parti
kegem
alloh
##fit
job
seterusnya
mbah
vou
kabin
berko
kno
minimum
dai
melayu
perkiraan
melintasi
##ful
bengkel
pks
masalahnya
bukhari
formasi
asik
intelek
mengkon
##kulu
humas
action
dangdut
aid
rec
heboh
channel
menyesal
usa
ibukota
membuatku
##lara
##14
petua
fleksi
management
belah
##55
baiklah
rentan
##yuk
perkawinan
dual
hida
nir
cacat
terpu
ranjang
mengenali
dipengaruhi
##right
ijin
koordin
##end
##cobaan
##logy
sarung
menembus
tabungan
toh
sumpah
bugil
napas
tek
pengendara
sekeliling
peroleh
madura
latin
##ceng
##bungkus
pembiayaan
teram
dinikmati
meletakkan
diseki
seluas
mawar
pemberdayaan
pemen
menumbuhkan
jalannya
##tb
religi
##dent
markas
meyakinkan
dinamakan
##gm
##porter
##canya
keja
menghambat
elektrik
bantal
##janji
1998
##mur
##pera
##dakwa
messi
##dil
##ford
handuk
dibantu
boy
nang
##seling
##tauan
hum
peram
##lilingi
perairan
##sd
##sisinya
berlibur
hektar
beribadah
diingat
diga
penyebaran
menaikkan
frekuensi
dvd
##emia
ais
bermasalah
konon
disiapkan
berpartisipasi
php
##hyun
kenyataannya
##inho
workshop
acuan
wed
##syah
##kesmas
david
stri
66
seketika
publi
##urt
sampel
bermakna
##ders
sepasang
ucapnya
cadangan
voucher
terh
##emon
##gapore
tonton
dagang
##market
babi
terge
terpopuler
demokrat
mengklaim
isa
keten
##iliasi
persalinan
##duhan
business
bulanan
prima
ditunggu
##inda
##kil
bagaikan
##baskan
diserahkan
solusinya
motogp
memutar
road
iblis
scan
kabur
berbau
project
white
##gabungkan
tsb
pramuka
##post
garut
menanggapi
mk
sea
pacaran
perbatasan
view
percakapan
terins
dilepas
800
seren
budget
tandas
keagamaan
singapore
suk
memecahkan
##darai
teliti
memperbesar
terbarunya
##bert
subur
trum
sains
##omodasi
semalam
##wari
adsense
##etron
memerintahkan
##luas
##bra
##rr
kerjakan
##istan
seu
intel
mit
polsek
angkasa
bertentangan
oil
menekankan
syaikh
disekitar
ampun
dusun
kondom
asisten
penyam
tekstur
##atim
didasarkan
jackpot
pengga
persetujuan
tomat
gairah
menjauh
begitulah
bangku
eksklusif
##gangkan
##edaran
pede
tersembunyi
filipina
logika
kokoh
kia
optimis
##gunungan
##gne
dibiarkan
ungu
peredaran
penyeli
giliran
terkem
xl
penal
bersiap
kuku
mengakhiri
radang
##batalkan
diyakini
##fon
berkelanjutan
berlebih
sekilas
menyusul
##itkan
jenjang
##merce
##rakkan
ekseku
##alth
code
bengkulu
official
ios
pertambangan
maria
##gungan
nap
menanam
atle
kandi
butir
##uty
pisau
kado
berjanji
duka
##arakan
archi
kekebalan
##unggah
ditangani
##yut
pasif
beristi
peno
aff
handal
hitungan
diperbolehkan
bersemangat
sandal
pala
teras
radikal
virtual
##vestasi
seling
mengolah
##yeon
timnya
lendir
dituntut
dam
sabu
sutra
beres
tae
pegunungan
##ray
meriah
##wayatkan
perawat
datar
fair
pemeliharaan
kentang
menghe
kendati
sumur
menuturkan
##rahmi
udang
tg
##borasi
telapak
west
antibiotik
tercapai
pertunjukan
sekiranya
bakalan
jim
linux
##watirkan
sports
##lio
percobaan
bol
balap
trump
95
diluncurkan
##sil
urut
tex
mage
merangsang
seumur
term
##media
conta
num
bebek
##latif
mengacu
##dim
mengeks
musisi
##tipan
secu
mempromosikan
ramalan
menantang
pengisian
telp
usul
dahsyat
sajian
##rangkatan
##dney
mono
reali
amalan
des
gerai
grafik
ilu
madinah
beraneka
kamus
orgasme
magi
selang
jne
aa
bayer
lumpur
pertamina
helm
##langkangan
karbo
##jatuhkan
budak
bahu
peradangan
##simalkan
##rong
##fum
fon
pengajaran
##kg
##ming
implementasi
penangka
slo
##sekusi
landasan
##atasi
##uri
jahe
sinetron
##ptasi
survey
swa
alun
kunjung
jd
larut
bernilai
kandidat
kalsium
aso
int
seraya
##hidrat
##stat
ditempat
beranda
nia
kiat
pembuangan
##masin
melewatkan
##iz
macet
##pergian
##komunikasi
berfirman
puskesmas
proposal
pompa
##pli
pipi
##uma
mencium
pilihlah
chri
harapkan
portu
cermin
disitu
pertarungan
series
##pong
##net
##vatif
qa
speed
kerangka
menyuruh
##rage
##gg
kekha
seluruhnya
mir
dihitung
sopir
berolahraga
##kara
berkendara
selfie
finansial
if
benih
anggur
blibli
menunjuk
##paian
pesona
##umpa
ekspresi
##ric
sekelompok
nuk
terkemuka
##online
##bani
bima
filter
hubungannya
##disinya
pengukuran
##jemahkan
terbanyak
sapa
stone
##hae
continue
mendesak
dipergunakan
salep
hukumnya
pangkal
warnanya
cate
netizen
dukung
peju
amanah
shahih
pijat
computer
##larikan
mengamati
nego
insiden
kesabaran
mahasis
khali
diragukan
seharga
domba
ibarat
selangkangan
piring
dubur
tawa
##duran
##laikum
##tianak
menguji
tercipta
hajar
pad
tenda
kisaran
disc
musibah
##draw
sign
##okerto
kolon
##stensi
##visor
hatiku
gm
membicarakan
bening
bekal
genus
depresi
##ullah
ribet
##painya
##aram
alur
##kamah
##injau
##cuali
penca
##led
ija
tuturnya
kreati
teguh
dekorasi
asuhan
diajarkan
kepadaku
visa
clean
basis
##ther
kasur
pidato
durian
hadapi
legis
##yati
tegak
pendidik
sok
berjumlah
##sensi
##eg
##unculkan
pok
##lindungi
revisi
saldo
leno
pemro
banjarmasin
ikon
tempur
care
karbohidrat
berputar
##iss
hindu
muntah
tea
tero
terbagi
upah
##burkan
##pn
tole
##ila
maz
##cen
mahkamah
pemilih
ciuman
pengembali
##hitungkan
diting
imbuh
kediri
ange
wahana
satelit
bru
tentukan
dipung
merebut
terorisme
pb
etn
##lawanan
seratus
pic
abg
que
stam
berjualan
##cut
memuku
nem
pertamanya
genre
jenazah
identik
wangi
sebatas
fotografi
##oman
year
bukunya
kembar
otoritas
persepsi
bed
##kiri
dijumpai
terendah
independen
##ange
kemas
diselesaikan
kuman
semestinya
membayangkan
##lisir
brasi
melekat
double
benarkah
menampung
nomer
bayangan
drum
sidoarjo
lembaran
##peng
##inergi
balapan
ال
jajan
hambatan
cika
dibidang
lingkup
pengembang
pengembalian
sejuk
cemas
rontok
phone
hub
verti
##indonesia
lenovo
bagaimanapun
celah
##bisi
##quran
pemberan
##38
##ombong
panik
eksekutif
senam
singga
keis
intra
paste
porn
tulus
meminum
##grade
kreativitas
##vil
ukm
telpon
menyeli
##lusuri
dominan
pembantu
tbk
##zinkan
sky
jantan
membesar
teriak
pembengkakan
stre
deras
##nih
kondisinya
gran
copyright
##mala
nanya
direktorat
mui
ditolak
##ball
lutut
payah
puji
bilangan
terluka
temuan
penghuni
##pukan
pujian
diawali
aids
rohani
pengerja
gelan
kehar
digan
##dudukan
##chan
temui
mendapati
siswi
pelo
beritahu
persegi
dibuktikan
lazim
peka
intelektual
abo
edukasi
terjebak
menji
##dani
tsun
entry
kepera
tawar
kato
fla
##ritasi
ultra
mual
##ters
menghin
terdakwa
simpel
terhitung
mengatasinya
##yana
larutan
tingkatan
lautan
abdom
lp
diolah
pros
ketahanan
##mada
berkisar
wasa
sli
hitung
duta
brasil
##gub
bedanya
##papan
pesisir
segenap
##hentikan
##loso
obe
disk
pungkasnya
pontianak
alas
##ikmat
##carat
kehormatan
siapakah
jelang
keluarnya
emosional
barangkali
selebri
hee
##hing
pati
##hot
##wenangan
keterbatasan
well
dipelajari
##lamat
teringat
rawan
biologi
bangkok
tanganku
asean
diartikan
kejutan
kru
pemberantasan
dihindari
membatasi
posisinya
samu
mendaftarkan
frame
menghibur
kabarnya
produknya
java
sejalan
metabolisme
terancam
dec
kehendak
tugasnya
birok
ilegal
kapten
##kiman
discount
public
##xel
##lina
##sungkan
thre
##warnai
sendirinya
keluarkan
##nakan
##rity
hatta
diperiksa
sebenernya
berinteraksi
kepemili
menara
bersabar
umrah
subti
##diam
bersatu
sarang
##saki
kop
penyelidikan
marta
baccarat
mengarahkan
##66
bek
diaman
seniman
tsunami
psikologis
vagin
##48
ters
62
menaruh
beristirahat
menyakitkan
alquran
ditinggalkan
kege
sound
susi
dilahirkan
menjem
##tris
kebaya
ditengah
bersumber
cel
berpindah
##cip
shin
kewenangan
school
##tural
legenda
arg
kreasi
rantai
mengidentifikasi
##sili
##phy
daftarkan
##bay
##wet
##rene
wisuda
akhlak
profes
##ualaikum
persamaan
pembalap
hk
kesana
ebook
efisiensi
lanjutkan
mengaktifkan
##shi
konsultan
perh
pik
##cho
way
korang
merem
transparan
sob
manfaatkan
disen
konve
dideskripsikan
##jara
arsip
##hah
##harto
laris
timbulnya
bersihkan
pengantar
kate
##kari
menyum
bayern
bengkak
abdomen
hits
dinkes
parfum
dicampur
##ridge
krn
##cekan
penerbit
##fas
##raikan
bl
rim
rasio
pie
##lita
screen
##irus
nun
laun
sebutkan
loker
digem
##cau
menginstal
jernih
sambal
balikpapan
jejaring
##fasi
sembarangan
69
ukur
partisipasi
karawang
##nyi
keberangkatan
pemberi
bersaha
yun
pemakai
diraih
##gene
ceng
meningkatnya
kesenangan
requ
memat
menawan
##paper
trom
syariat
gaun
curi
##pektif
mod
perhiasan
##bagai
valent
royal
rest
metal
hiasan
guys
retur
##reditasi
hunian
ilustrasi
fitnah
memaksimalkan
##sos
personel
kaku
##yap
maksim
serentak
ideologi
rempah
berkhasiat
miliknya
kaset
los
gelang
kupu
kuanti
badannya
##ces
memikat
##yawar
oppa
ash
break
merekomendasikan
mempercaya
pengecekan
sch
menyanyi
potensial
professional
mencan
diobati
karbon
woo
gender
##sokan
meneruskan
##hhh
terpadu
##turahmi
##dd
pahit
##minasi
##ugerah
lihatlah
iseng
puting
pau
galau
nyo
padamu
##tesis
dress
hakikat
bertahap
stat
gugur
peternakan
nyamuk
olahan
darinya
tadinya
usianya
menguatkan
##pto
menggoda
kesenian
dinamis
basket
ditarik
penggun
nuansa
resort
##pau
bensin
wafat
relawan
kebersamaan
didesain
perlakuan
orangnya
##siran
##cover
finish
elektro
dipotong
misterius
benteng
##prestasi
##vious
##tupan
cici
tahanan
menin
lanjutnya
##utnya
first
disuruh
lemon
dibekali
mikir
##distri
##uran
mengungkap
meninjau
advan
medali
ibn
anton
lite
penanaman
##gari
payung
menghampi
##of
dibeda
nyanyi
##migrasi
penderitaan
orde
merespon
diproses
bid
taat
hip
niscaya
tergabung
dihapus
sisanya
commerce
##padai
##onalisme
##29
pemer
terjang
teluk
##cikan
1990
tercepat
rating
terungkap
step
belahan
ego
##pinsi
sege
maksimum
konseku
tendangan
##2nya
dimanapun
alis
penjajah
kepemilikan
spam
bad
radar
diungkapkan
tinjauan
memprediksi
##37
ninja
asosiasi
##zy
capek
ngu
##ill
##35
##iri
bermula
berbin
persem
nampaknya
sumut
##untuk
lear
reproduksi
propinsi
pengujian
bertanding
##mbau
##dek
##bro
katalog
konstitusi
menstr
gabung
direncanakan
ditahan
mening
perlawanan
raih
##hawatirkan
ditunjukkan
cucu
##iko
petualangan
product
benang
mouse
taiwan
##gakkan
wiki
afiliasi
hua
modul
fast
injil
ui
##oroid
input
mungil
pendaki
tegal
komersial
dihubungi
mulutnya
berdaya
fiq
atasnya
##wei
trave
##gol
dikuasa
bawaan
pelem
##orr
hye
dibagikan
teripang
##kulan
##ground
meyakini
tagihan
olymp
berturut
dibedakan
lelu
kasihan
gui
terduga
genitalia
kuningan
##ged
paman
##kuler
that
sham
##itun
kangen
pengamanan
hipo
testi
##atinya
##gran
##ogen
partisi
custom
excel
ekonomis
junior
tersim
nol
esok
membangkitkan
konveksi
##tekn
kanak
kepastian
tambahnya
cabai
terben
terkecuali
##tini
tuk
sukai
pemprov
menstruasi
jaksa
bangka
ato
##lisensi
menyala
pejuang
jalankan
memukul
##fokus
##ramah
hair
kapolres
##dopsi
denda
republi
ajar
digam
mengikat
mour
##perasikan
awam
##yit
1997
##bik
didepan
subuh
from
suaranya
diberdayakan
argentina
perdamaian
rong
penangkapan
alangkah
diminum
previous
pengena
ukurannya
sablon
moga
sent
nyam
bocoran
turis
texas
ure
iritasi
##cik
partner
##yn
perawan
putar
ditempuh
pergantian
tembus
##tero
subjek
menanti
obesitas
sakti
68
##banding
insyaallah
cim
rebus
farmasi
jabar
jamu
mark
bermaksud
##ates
dpt
mengira
penarikan
dijaga
##bag
##dium
mending
dikom
obati
kebing
mourinho
jose
buil
tebing
menduduki
berdekatan
berlisensi
aug
katolik
##eter
##deta
jarum
mengawasi
##kong
lokasinya
pembersih
diprediksi
disambut
dilem
site
mengantisipasi
cr
mustah
noda
hemoroid
##tunes
kagum
##uto
kurus
gelandang
##ukupi
##lette
betina
regional
##dihan
pengua
mesum
said
spar
subtitle
kontro
mengutamakan
vaksin
mangga
doc
nuklir
bpom
adakah
apbd
gaming
67
##far
money
panglima
kaidah
mataram
penjuru
0813
laju
memantau
##sarana
##hael
##rimen
menyeluruh
##bisan
airnya
manjur
##zar
audit
##pment
beauty
##ovasi
##asik
buruan
cut
privat
skem
##star
span
haruslah
memindahkan
ledakan
##usulkan
nunggu
berterima
jae
zaitun
miring
kiranya
kehu
instruksi
saking
penanggu
perolehan
terce
tarian
kartun
jasmani
tokyo
rese
mahasiswi
staff
##liat
valu
asasi
pet
datangnya
cra
bernya
kompetitif
batal
##kuit
sesak
katun
didengar
taksi
##hian
pilpres
tatkala
siti
jantina
##garkan
crystal
berpakaian
tt
##atar
keuni
merekam
bepergian
ajaib
inflasi
76
kro
merapi
##purnakan
##jk
bedah
kuh
jet
kp
stand
zo
aktivis
masuknya
merujuk
itunes
malahan
##zia
berja
hulu
surah
##sistem
##hum
insu
perge
sangka
pahami
memunculkan
contact
parlemen
dipin
##bitan
asalkan
gha
pikirkan
editor
dorongan
##time
lambang
##enderungan
dibuang
tidaknya
menju
harmon
##aikan
fanta
##listik
get
bk
ray
kebingungan
mengagum
tunjangan
700
hm
penanggulangan
tubuhku
cos
diumumkan
gho
##kaman
filoso
##fini
menerbitkan
##pora
ramadan
##tanyakan
fresh
makeup
memperingati
##tico
tertib
mengantarkan
dirawat
banding
kulkas
prasarana
met
dpd
atasi
ingatan
titan
serangkaian
informatika
mengantar
atom
memini
alokasi
##26
##gawa
##ax
98
barisan
900
mengulas
##dola
purw
##cita
desktop
olim
##zza
output
melimpah
side
khalifah
penentuan
##fone
anies
magn
mustahil
pengab
selagi
syam
hama
text
##llam
root
harry
##ple
##dulian
let
berprestasi
kecenderungan
cintai
modem
dikau
diletakkan
kemih
prok
mengutip
photos
dica
import
nota
selepas
belit
##dikbud
hus
penalti
wallpaper
rekayasa
nilainya
usahanya
cabe
feses
pergau
sriwijaya
wire
menembak
##rausaha
untungnya
cir
hallo
##yy
##pakati
dibersihkan
##lc
78
menerangkan
semisal
serangga
kejuaraan
##yarat
##purnaan
mengangguk
##kade
komite
prostat
legend
perhubungan
light
rincian
##barui
akomodasi
hipertensi
subyek
selingkuh
##berg
withdraw
trombo
seha
famili
tertim
deli
separuh
benci
##lywood
wen
yatim
##darat
indahnya
180
kapita
wasallam
dikemas
developer
dikuasai
##lancar
tot
sai
##watiran
cuti
lcd
usulan
##door
award
dendam
ready
komplit
factor
##paui
regulasi
##yid
universal
mengecil
##ddy
bungkus
tampan
kawin
komoditas
berbisnis
modus
penguatan
nyat
##peri
bijaksana
##cetan
pergaulan
produktivitas
##rkan
##jinya
##burg
##enta
agam
takdir
milyar
berbuka
purn
ice
##90
icon
##bawa
skema
argum
tembakan
##trans
##ordinasi
##yangi
bapa
momentum
##itraan
diun
menyewa
tertidur
##dol
coffe
kelelahan
health
mood
sedekah
kiper
aura
kelengkapan
##plorasi
mendeteksi
##pter
special
##peda
cermat
menggabungkan
terjatuh
direkomendasikan
pasta
armada
peluncuran
wacana
process
dibunuh
pengerjaan
md
sci
mendasar
##tekan
##urkan
kepan
dicinta
##iler
boh
traveling
source
##dum
mp4
##ult
terakhirnya
memperluas
kegunaan
pegang
pembata
bule
lengkapnya
oton
dipak
sembe
speaker
hormat
gy
bermotor
serum
rujukan
##lr
koordinator
drops
berbar
yi
tersimpan
assalamualaikum
fajar
penet
hardware
hom
kemaren
maj
kualitasnya
benua
##sipasi
tama
##sida
james
menganalisa
dulunya
##info
berkuasa
##dwal
##raktif
##emasan
##pakkan
sed
penyidik
##page
mengabaikan
menjatuhkan
gresik
##harma
pending
mataku
segan
serie
dh
memancing
pesaing
mengka
psi
gemar
story
##judi
dwi
##vic
##habi
nyari
##uhid
emak
bei
##yadi
cake
telat
room
nasihat
terken
swiss
melarikan
dikaitkan
solid
request
penyerang
cacing
##inc
##ating
##tari
##lakang
thesis
blan
about
bobot
penutupan
alhasil
##kasan
menginjak
letaknya
indikasi
ambon
##ingkan
uraian
mukmin
zul
##aaa
obser
enzim
kedalaman
fis
terbangun
pengajar
rm
touch
##uaan
2d
seluler
kontraktor
##cong
anemia
##eman
log
bromo
perpaduan
berakibat
terinspirasi
lisensi
##bp
meledak
iron
pilot
melaju
lampi
nakal
terkirim
lebah
kir
esq
pengemudi
rossi
##kim
pojok
terikat
simpati
price
end
yud
uud
perundang
setinggi
who
##finisikan
luh
bertarung
lot
birokrasi
pelamar
##unter
personil
##mpunan
melom
##olok
##oney
oleskan
##dangkan
perde
bermimpi
badai
surakarta
##rome
kemacetan
ome
pabrikan
persatu
lit
kemampuannya
dipaksa
##ness
janda
friend
rektor
kelin
pasokan
untukmu
mole
##34
penul
singgah
beranjak
permata
mendekat
pertu
yoga
dikembalikan
##stic
menyembunyikan
bersahabat
dilu
michael
##zil
sehabis
##27
tegasnya
jurnalis
dilindungi
ion
##gritas
denger
77
mulailah
standard
ruf
empuk
##reng
##tikkan
sentral
demon
sejatinya
##copy
subhanahu
kekhawatiran
pertanda
rate
##tasinya
vel
##ugh
##zab
##ship
merancang
fem
lt
##ptimalkan
shir
sosi
terl
##ers
tetaplah
hapus
##rahman
paruh
##ominasi
pencurian
ditingkatkan
##arak
menir
##basi
belilah
nyatanya
ic
##2an
##jeng
##ikahi
##peria
penggunanya
pemang
##fasilitasi
boj
perspektif
striker
keyword
##sha
kalung
##ddin
saus
berbunyi
muara
kurun
##lower
atletico
menghampiri
telekomunikasi
pengumpu
drs
##tonya
##presiasi
raka
realitas
##suh
arahan
hendaklah
kawa
pendamping
##alisi
s2
sif
##gaman
peninggalan
kepi
ditimbulkan
penyediaan
kedelai
##gatan
kurma
seju
##got
kepedulian
diperkenalkan
menenangkan
idaman
memuji
sunan
##cit
nominal
menghalangi
kios
penggi
pelukan
86
sombong
dist
gerin
secukup
diwajibkan
narkotika
fede
pemkot
penderitanya
jasad
pepe
##cti
##cantik
wayang
mendapatkannya
dimuat
bergi
##cangkan
keramik
karie
pengungsi
##final
basa
##guran
poly
karier
##oma
kerumah
blogging
kompre
perseroan
ganteng
script
tegangan
##table
tolak
##figu
maag
maut
keje
jessi
mn
##libatan
##pinya
mua
keunikan
melo
dilakukannya
vivo
mencantumkan
sdh
bha
bocor
tempuh
seneng
##ast
asum
inovatif
menjelajah
gk
pukulan
##wara
##punya
archives
##rami
penumbuh
##juangkan
elect
lilin
penularan
koin
##kh
fut
##buan
penisku
kebencian
ijazah
kuta
kriminal
jenuh
sukabumi
aparatur
pis
##care
menggambar
tersentuh
teror
karno
##lahir
now
sesat
##asakan
##med
diriwayatkan
partikel
colle
secukupnya
didampingi
terpasang
##tainment
##dikasikan
bergu
spt
atraksi
fraksi
##prot
betah
memutih
menandakan
manga
##col
menyertakan
memory
kendali
buatlah
##alo
dibagian
testimoni
khan
##jab
##lora
digemari
terserang
legislatif
semut
aktris
bok
rambutnya
##logram
berkala
##wira
notebook
##unting
##intahkan
jeans
##zed
pelangi
rp1
diamankan
roulette
##late
menentang
berkomitmen
anakku
diameter
terpenuhi
##odiak
menyetujui
##mit
rekreasi
stamina
dina
geor
cross
##bulan
diuji
itupun
batubara
berjar
atri
m2
dikum
kedai
ingatlah
pembakaran
snap
##ingankan
buddha
74
andai
membenarkan
irak
##yet
##cinya
salat
syara
berminyak
astron
fungsional
jor
bubur
spek
batak
tinta
##agi
massal
henti
curhat
upgrade
sop
wee
tangkap
penyerahan
diperbaiki
kejak
menjamu
##aktifkan
mengunduh
provi
##nik
ntb
hots
##ritaan
syiah
barulah
ener
melemah
keperawatan
##hy
magelang
kedepannya
av
memposting
hadirnya
jawabnya
jersey
permal
##gantungan
##tura
pengenalan
deretan
absen
pertaruhan
beram
ds
shampo
kredi
##atul
##tiban
##bong
tgl
kristal
menjadikannya
##enteng
##liaan
bala
bergaya
subsidi
bul
panggil
##kumpulan
meet
jember
kanada
penempatan
##ariat
meluncur
menunda
digambarkan
##inkannya
pembunuh
menggerakkan
bs
##pm
kebanggaan
##spirasi
##cbet
##ranian
lagunya
tuduhan
harum
bermutu
sedikitnya
taktik
##lic
perbe
##iban
republika
sifilis
donghae
komen
simulasi
penuaan
menimbang
##rest
kebangkitan
indonesian
sirkulasi
##pinang
monster
dicetak
siwon
##ragaman
##mpingan
membuahkan
##kotaan
##lingan
twe
110
cctv
diundang
sirsak
skuad
berma
penguasaan
kw
##taskan
##io
sydney
dikala
akut
kipas
##diki
##minkan
count
seharian
mancan
desainer
persija
widget
daud
hasrat
hello
asm
rame
kista
sco
##piade
dele
apli
tasik
fleksibel
penetrasi
lor
ciptaan
ela
##distribu
berlu
pemutih
pemulihan
bertum
##toris
berkenan
##dya
gugatan
register
didunia
ball
mengawali
agent
syair
##ml
banner
berjarak
63
penataan
##yur
pemas
kesedihan
##malaya
##lock
genetik
##fc
wol
anugerah
kiai
tongkat
prospek
ketiak
parpol
print
street
kejaksaan
tank
berujung
diarahkan
temu
mancanegara
keberanian
stain
galeri
karunia
btw
##strak
eu
##gok
politisi
##butkan
cashback
dilalui
gambarnya
syafi
portugal
terkon
dream
kartini
kaitannya
membatalkan
ruko
penolakan
inget
kunyit
warni
kuar
ceo
asas
class
##mental
##tahuinya
##garanya
know
berwisata
press
tauhid
paksa
mengusir
cetakan
meringankan
##inium
##atra
zodiak
efe
keberatan
fatal
ekosistem
##hz
pilar
terku
##balisasi
doang
##presentasi
##kuhan
pita
fati
pelangsing
aisyah
##posi
perkasa
jessica
memajukan
kumpulkan
menggali
gurih
penampakan
malik
lab
##omet
made
##cript
##kuli
sebi
zenfone
aspirasi
bai
dipegang
##makan
menari
tiens
bert
poster
hos
rich
lebat
anhu
##leman
##tc
radhi
diucapkan
populari
##gr
dijangkau
kedi
berisiko
imun
takkan
bayinya
##lokir
nipis
##jamkan
perkotaan
exe
dikenali
case
terapkan
rektum
dicatat
transmisi
pedesaan
ss
##lati
hoax
diatasi
mali
ips
membacanya
##juti
##derol
bersejarah
diaki
wong
rutinitas
muatan
outdoor
paparan
kemauan
gps
jom
comments
barunya
##liam
moment
ruam
##die
##didikan
futsal
ngerti
faktanya
kisi
ratus
honorer
pasangannya
adiknya
memperpanjang
thn
dadanya
kenali
batuan
tertangkap
perantara
medium
disfungsi
longsor
servis
insti
div
##yaratkan
bersinar
cyber
rinci
kehabisan
corpor
menghidupkan
samarinda
sesam
kehutanan
##krim
##onta
coffee
jahan
aca
toleransi
paradi
##dm
ombak
##gambar
##figurasi
pengacara
keaja
debut
##rida
##graman
disadari
memutihkan
alf
mahkota
tropis
learning
globalisasi
kelang
##ola
trim
perih
asin
heli
##stop
dikumpulkan
##wanita
terangnya
mos
karyanya
##dirman
genap
tools
dipesan
##kapi
olimpiade
rentang
rumahan
##ario
misalkan
##tory
kiriman
mars
##pain
getah
trulum
ceramah
##ump
idola
dropship
diaplikasikan
booking
nkri
pencem
pemicu
##tial
##cast
##starian
seller
keburu
camera
##ilik
keajaiban
menyangka
huh
koalisi
meling
##kwkw
melampaui
hea
melanda
drop
koloni
bine
menginspirasi
lembah
ud
lemas
kubur
iwan
tingkatkan
safety
ceria
penggunaannya
fad
dino
sumbangan
##luran
laser
##sungan
##stari
kulitnya
squ
terlan
##bolan
mencukupi
jazz
penjelasannya
##tv
general
##orrho
belaka
2x
med
mabuk
lelang
lembab
anggotanya
secepatnya
tir
kelola
memisahkan
isis
##umpuk
berinvestasi
##tonton
berhubung
menakutkan
##bre
gading
##anasan
sambutannya
date
jihad
radiasi
##indah
name
development
pendeta
come
belgia
1995
##cewakan
diakibatkan
ketergantungan
mendidih
jateng
##ameter
biner
##sultasi
silver
71
##reneur
navi
paspor
bagiku
pengabdian
##ason
wono
##jawa
ming
##imi
1996
kawat
pemberon
techno
##giri
gantung
##pula
dikit
rio
erotis
security
found
sahabatnya
japan
beneran
dongeng
cristian
kabinet
keterlibatan
pram
pemanasan
##lagu
ongkir
##mited
selisih
boot
feed
sabda
membaik
salju
melintas
klip
mencerminkan
penghan
pemberitaan
terjual
melompat
kebugaran
akreditasi
ol
desc
penganggu
##kaya
short
4d
##depan
kamarnya
penyesuai
97
jp
kemari
##yawarah
disembuhkan
tegang
ditunjuk
follower
abor
ij
seram
##enangi
##rant
##lautan
komplek
sedikitpun
dara
##raton
naruto
kehidupannya
kecu
##luarga
##mul
nasehat
national
lele
menduga
dipersiapkan
melamar
sutradara
diberitakan
##uting
ntt
untuknya
ketenangan
##mikan
##tein
shirt
##ms
bibirnya
##sembahkan
saleh
ipa
hihihi
kaskus
mengemukakan
dibatasi
sembelit
pengajuan
ngasih
pemrograman
##tangi
popularitas
asn
kerjaan
institu
sponsor
ekstrim
##alukan
membantah
horor
ntar
family
##tent
barca
fatwa
##siatif
berso
keimanan
thomas
jugak
sr
dimilikinya
viva
geo
##sempatan
##diagnosis
persediaan
risa
wireless
diukur
memasarkan
kelinci
membesarkan
distrik
keliru
nit
sol
magne
##enam
dialah
stra
daratan
photoshop
indos
bakti
pembuka
gt
pemda
wasit
190
soli
penyesuaian
buktikan
##loid
memp
fotonya
fron
kesini
sinte
##cehan
##wis
salon
##field
dna
dihadapan
##oa
##formasikan
brows
silaturahmi
##anto
jengger
kuala
##amerkan
berburu
kostum
atur
##the
##catan
asumsi
kaka
##aki
belitung
##jinasi
libe
##jau
paus
santan
boo
extra
pengumpulan
mestinya
terintegrasi
wc
berasa
pekerjaannya
rekomendasikan
pengangguran
corak
derma
sepele
santo
##yuman
##aks
tertan
kejang
berbayar
##bosan
pendirian
ormas
relasi
##orientasi
antiv
roman
jalani
daily
teater
kost
##bh
bina
##kinian
pssi
secon
kerana
reguler
cicilan
amir
spre
integritas
##akuasi
trauma
rekrut
plas
zu
mumpuni
##oster
perun
work
yoona
panah
##graf
manggis
disepakati
rukun
lok
kebangsaan
soeharto
kenyang
publikasi
mempertemukan
save
tandasnya
akri
percepatan
##sure
sirih
kean
##mau
kearah
sihir
juri
##angi
valid
tik
prosesnya
profesor
##gua
##44
bertajuk
habib
ses
peliharaan
institut
##anan
pepaya
menggun
browsing
madi
propolis
##kalis
tertimpa
bayaran
sempet
diandalkan
##light
menunaikan
terdiam
##diskusi
karo
pernapasan
##nnya
hammer
ibcbet
hilangnya
shu
agresif
##keta
bermunculan
toba
atmos
kel
d3
persentase
mete
##ei
intensitas
##aktif
mulanya
sekunder
penerangan
kemuliaan
pelanggannya
sehubungan
selem
bn
mempro
pewarna
##ografis
pulih
logistik
petir
asri
##odo
kelautan
bgt
menariknya
huawei
display
william
block
96
bidan
sukar
teladan
boro
pendarahan
entri
akupun
lion
kelembaban
160
fantastis
girl
dataran
##ongkrong
##tuanya
berkontribusi
wr
berkapasitas
expl
menyalurkan
##stan
##ea
tamat
acak
##balut
amazon
track
uda
##wor
aqiqah
jabo
buktinya
ut
wahid
berjumpa
ladang
##dengaran
intensif
suruh
loa
saudaranya
molekul
steel
istriku
kusam
paytren
loe
##edi
saku
proper
wirausaha
ekspedisi
##dwalkan
ear
##terapi
##kabel
bani
dipisahkan
##data
nie
##starikan
##bohong
menyebutnya
diterjemahkan
suamiku
ugm
aero
kondu
##lanjaan
flek
##negara
sapu
terlarang
rep
benak
kawasaki
brown
gay
79
access
apik
drastis
cali
ranah
kulihat
denah
##face
##inggul
kelan
trombosis
##tooth
mendarat
client
quality
##dad
kesamaan
diklaim
pemainnya
orang2
##buat
este
cile
##canda
##pital
pertukaran
##egaraan
camat
ipad
kuburan
kurasa
dimengerti
sadari
##mptn
gerindra
menandatangani
bron
##pers
komandan
hana
##tenham
rsud
##vy
nirkabel
pengamat
##pop
dadu
##hadapkan
##manya
penjah
utusan
bayang
pengurangan
penyalah
##ekat
version
fra
hidupku
disisi
peperangan
nongkrong
panti
paul
fiksi
##hub
pembangkit
bias
akrilik
ditanam
antivirus
memanjakan
membenci
vimax
index
ditekan
##peksi
wb
dikonfirmasi
etnis
liputan6
##ano
##mentasi
berbalik
lte
bil
menyimpulkan
61
kupang
##young
pengin
umkm
##esta
oven
map
89
pemeran
guar
##zie
mengoptimalkan
mengharuskan
anas
kilogram
patri
sof
rpp
##afkan
##toko
uap
ath
baek
kesiapan
peter
reputasi
ummat
tani
##waslu
konservasi
duluan
##lawat
##buru
jurus
kelulusan
##sut
resul
pangkalan
##banya
berbi
sinergi
peluru
mendominasi
turunkan
nangis
cristiano
terha
##lukkan
camp
berh
##omisili
##lepon
pemiliknya
javas
hir
berwenang
pixel
pinggul
keutama
slim
background
menetap
konsekuensi
mengecewakan
##zali
vidio
melayang
leluasa
funda
ubun
gatot
jamin
##daskan
anak2
daniel
vertikal
rezim
##banan
memap
diamkan
hollywood
##erahan
silat
wewenang
qui
space
tottenham
##inge
jk
persidangan
##preneur
503
##ktikannya
##arinya
rasional
tower
mitsu
sulsel
semasa
mencob
##dirian
menebak
bersantai
keberada
##mid
penjualnya
sehun
##pusat
provider
khila
kalaupun
##hatsu
##vensi
mewarnai
menargetkan
##generasi
kondusif
semifinal
##gut
jayapura
rongga
##mahal
pegangan
menyakiti
devi
##masinya
see
diceritakan
##sara
ikat
##mall
dinamika
diy
lampiran
sirkuit
baq
##sanaan
##dikat
menta
kawah
amanat
ei
effe
dires
didatang
backlink
mencabut
mertua
##faktur
apbn
ojek
sesuaikan
mong
mengklik
kelihatannya
memberitahukan
1994
##store
mengendarai
berkembangnya
bluetooth
berkesan
##bala
kura
mai
mengikut
aluminium
penerus
paypal
kerin
##smi
langsing
mahluk
menyika
meran
kekinian
##depankan
membikin
eka
dekade
menoleh
terobosan
daihatsu
##onald
aula
meksi
##yon
magnet
buahnya
self
inch
duh
hijrah
dokumentasi
##detabek
senyuman
disetujui
membawanya
##lamannya
obro
keji
##ormal
dihukum
tertua
kapanpun
berhi
pcs
##harian
penunjang
menganalisis
klinis
dpp
##caranya
canon
##lma
berfoto
terbalik
pres
82
pembawa
membebaskan
kongres
penampilannya
dragon
article
memus
segitiga
reng
sentuh
##jatan
1980
content
##rir
##giran
wap
##tech
vaginanya
membuktikannya
outlet
katakanlah
berdiskusi
bedak
##dasari
entertainment
myan
aqu
sensual
tip
ngerasa
mill
senja
pengorban
##liga
##lif
menumpuk
menyinggung
kejujuran
dkk
kudu
lapis
termahal
goal
aji
##ela
84
eksperimen
hatimu
mengaplikasikan
ketenaga
mempere
hil
hacker
gagah
polusi
##sesi
penerbitan
menyapa
undian
##ksian
last
perti
ransel
##ritik
sgp
##amaan
##nie
musyawarah
##murah
ditanyakan
87
robert
tergi
menanggung
##style
mebel
papar
yus
rambu
rawat
tl
##mis
inisiatif
##32
renovasi
perkembangannya
mendampingi
##yol
startup
bohong
supir
bari
##cos
cepet
myanmar
##ription
meneliti
dibakar
menyalahkan
raden
##endam
sejenisnya
dipungkiri
distro
pangkat
indosat
penyim
gelisah
membosankan
##nanya
cul
##damkan
tersing
wortel
tulisannya
menuai
dipertimbangkan
##uis
mengg
pelaporan
menjemput
penghilang
rel
##fol
jemaat
imbuhnya
jemput
potret
mengetahuinya
tasikmalaya
fifa
lenyap
pencemaran
diperhitungkan
tayangan
nyi
meleng
identifikasi
kediaman
didom
3x
pki
##durkan
meksiko
memotivasi
kontrasepsi
##linder
##ilir
##fren
dead
cool
astra
berkesempatan
tunjukkan
##berat
manufaktur
ney
##lahannya
kees
1992
busuk
javascript
foot
sekretariat
sudirman
gap
##fore
kesuburan
ditum
##isan
bercampur
tatapan
##yen
menyimpang
kesukaan
##iling
makmur
kutipan
##ulatan
julukan
abbas
350
##onia
nekat
mendekatkan
beraktivitas
eksekusi
##kusikan
stafa
orientasi
eksistensi
aborsi
dep
pebisnis
##hambat
dilang
memerangi
chrome
##fri
kasi
##ayai
company
##kalongan
dharma
jalinan
valentine
ngeblog
tunduk
syaraf
##salan
balon
sampingan
lady
foundation
membimbing
kecan
haus
berkeliling
harmonis
teruji
madiun
##kerjaan
permulaan
menunduk
obrolan
tetes
cot
yohan
##yarakatan
renungan
alaikum
mengulang
berpisah
ciptakan
kejam
ami
hehehehe
##cas
dus
rekannya
melirik
perin
hyung
color
menyembah
peradilan
menyingkirkan
sumatra
ceritakan
host
perpi
liang
teratas
ado
kolaborasi
iskan
idol
notifikasi
##rek
pembesaran
##hoa
inje
boss
laksana
palang
keenam
observasi
pemenuhan
goa
didominasi
kuah
##laminya
pengarang
##file
##sic
##dle
##binasikan
sengketa
temanku
##ahannya
penghu
3g
swedia
##hongan
sken
dl
##raja
arema
responden
##jt
sahur
old
hidayah
##fur
membuatmu
##isar
dicintai
setelahnya
mada
##tongi
terserah
ketawa
disan
mekar
bergegas
sumsel
terpengaruh
raf
menjangkau
bahwasanya
paper
ujungnya
cloud
##bishi
racing
uts
##grafi
asmara
almar
berjen
tekad
##key
tangki
sle
golden
syu
antik
sambungan
menegakkan
kedaulatan
individual
rumor
##akkan
periz
kelap
memaparkan
pizza
##lintas
128
##omblo
pulak
##status
conte
##pay
pernahkah
pekalongan
bait
##ated
##dihkan
berjama
basic
kembung
berlomba
perlomba
inspir
kuantitas
angkot
itb
santun
anggapan
panggul
join
membawakan
wedding
dihentikan
penciptaan
dy
##pokan
logis
multimedia
gaib
satupun
kondi
##suran
1259
##real
kecilnya
december
kelamaan
akademi
thor
skuat
ataukah
kemerahan
jon
dihan
##ach
penyalahgunaan
kolek
##kahan
salaf
##phi
dipasarkan
ibuku
soro
tabi
wara
ukot
##asinya
##kanan
jambu
hepati
jajanan
mengecilkan
english
reje
##odifikasi
xp
ketahuan
mudahnya
selebriti
keutamaan
kemah
ketegangan
dimasak
021
pengorbanan
uretra
terindah
saksikan
moham
##cipi
memperkirakan
almarhum
temba
insulin
kemiri
perlombaan
deklara
##ius
##if
males
klasifikasi
alm
infonya
##ved
##ghan
belakangnya
waka
pembebasan
memfasilitasi
dibicarakan
##tui
bernyanyi
pelengkap
skan
berji
dikemukakan
napoli
menginfeksi
##zio
mesjid
psg
bercak
yuri
konseling
terla
seta
diderita
##atullah
diana
##ese
apotek
penegakan
carilah
layer
mengelilingi
flashdisk
##ilmu
cia
purba
makkah
licin
idea
##mb
omega
soto
kelanjutan
trage
kehe
boom
spontan
##inggo
berti
penghasil
debat
sl
##stick
luang
maxbet
tembaga
jabodetabek
bale
martin
honor
pdip
memengar
mobilnya
sket
shalih
mitsubishi
khasiatnya
moyang
pengangkatan
kesembuhan
berstatus
##dp
netral
kewi
##alisasikan
##garap
##bos
kapur
lupakan
keang
sbb
##lla
doakan
saing
any
paud
pound
perorangan
stainless
##pisi
##ath
##core
senayan
even
##baruan
rudal
obama
perkan
bawahnya
2020
##ones
kole
plaza
pencinta
perizinan
##limut
meeting
mpr
defa
sye
menelusuri
terlupakan
gri
gian
niaga
berantakan
##sg
kataku
hepatitis
cukai
maxs
eksis
pertanggung
soci
migas
unjuk
perwira
penyerapan
##pilloma
arief
##ghts
##transaksi
berambut
##udin
kewanita
kacau
ruh
penyan
xperia
abstrak
senti
jahanam
tionghoa
##dl
ax
kondiloma
memengaruhi
##harjo
tersusun
putera
jempol
dampaknya
kompak
suporter
##waris
mind
##dala
stabilitas
kemitraan
mendaki
##lution
rotan
##husus
##fornia
response
perdebatan
penyimpangan
singkatan
##undry
berkepanjangan
menyatukan
stiker
neo
mendoakan
sei
menyimak
##udhu
gantungan
130
font
##laimer
sujud
ef
click
megah
propor
imajinasi
mengedepankan
ganas
neymar
mencobanya
biod
keatas
gp
supermarket
paragraf
conver
berfokus
##arm
ira
##badikan
wikipedia
penegak
temper
yup
gejalanya
oto
paci
kebumen
diharuskan
night
dicuci
banking
berorientasi
pelantikan
##tono
berperang
traffi
perpanjangan
##orbankan
blen
wita
gaza
kej
memperjuangkan
refleksi
glass
##senger
warnet
menindak
joon
##ql
keesokan
cemburu
##65
##umen
##ribu
##tag
pornografi
awar
jangkauan
meniru
##75
paulus
dijawab
berkonsultasi
##yl
figur
hahahaha
##ratif
jgn
asrama
bida
casing
watch
saudar
ig
##timewa
##ormat
ubi
sleman
berdosa
##jai
disclaimer
##bound
joker
bojonegoro
purwa
peminat
konfigurasi
asalnya
tki
sistematis
disimpulkan
##arium
##tib
permalink
dijadwalkan
ganjil
pinggiran
keseharian
##boy
##salem
spo
praktisi
menguat
##lance
##fokuskan
koper
swit
mach
belasan
memasukan
mario
##ktor
porto
##walitas
terlak
##satu
research
##ontalo
mase
tragedi
yaaa
kumis
atribut
##waspadai
##hensif
rejeki
chapter
memperbanyak
memprak
gum
brosur
dinya
dif
##sutan
##roli
nyen
kompor
##bility
bkn
urban
deklarasi
device
deng
perkantoran
ketert
slip
##kurangi
##raman
malem
##paan
diberlakukan
##ahah
##cauan
esti
ditinggal
bertransaksi
marga
santi
melangsungkan
##rahi
moj
doktor
opera
bergantian
komando
ngapain
jok
##atangan
sentra
dc
rekrutmen
pakistan
refer
berlaga
##junjung
pemadam
berteng
intro
##rul
california
wp
kelaparan
##hususkan
negaranya
kecanduan
mengembang
waris
sman
joo
140
##danan
struk
land
panggang
homo
panda
rab
remote
biodata
##malisir
inteli
mh
toto
dot
busa
terdepan
marak
##zal
jatah
perokok
##konya
jenisnya
bisakah
##room
mengering
##luhur
berisikan
obatnya
skenario
lestari
cila
amino
ahad
komedo
##gami
kemunculan
risalah
kepeng
##jangka
##dakannya
mengab
gosip
##tha
pare
##200
popular
terbaiknya
mengek
vin
diputar
didorong
mempri
pasuruan
mengenalkan
ulas
melacak
##atic
default
memanjang
description
##name
pelosok
bulannya
diko
law
kogni
irama
penyampaian
herman
komedi
karimun
cit
rawa
kesaksian
harimau
ciam
dihubung
sikat
perpisahan
advo
fau
berbaring
##yallahu
marilah
soda
beat
letakkan
pensil
ridwan
hadist
lingkar
alamiah
investi
keilmu
jemaah
penghubung
goyang
##jack
fotografer
pano
curiga
dituju
legendaris
kekal
pemakaman
american
kelancaran
pingsan
penerjem
meremas
akta
kantung
kuil
mengapresiasi
terlaris
singkong
kabut
##123
menabung
##talan
sos
##tab
##kik
##hatkan
mencolok
##ategories
menipu
kegelapan
beresiko
dihadapkan
##iii
chatting
pembersihan
limit
kra
xxx
organisme
##genggam
golf
jomblo
##asia
him
mengemudi
teramat
march
salib
##hentian
caleg
pemukiman
##etra
dikurangi
naj
ditin
pencerahan
menyikapi
record
##bank
basuki
tripad
##rosis
##jap
bill
tripadvisor
mengevaluasi
tipu
##daian
keberadaannya
terb
##umbu
nissan
himpunan
##walan
##fox
##tiar
ilm
mens
##and
dihargai
beradaptasi
tumis
##chat
##dengan
##vita
##pukat
##tures
gorontalo
disangka
##ie
akad
kependudukan
##sei
george
uangnya
digantikan
curah
bong
##pahit
will
mengesankan
pemecahan
##distribusikan
august
dn
tumpukan
bertukar
bercanda
biarlah
mendesain
putrinya
kakaknya
liku
mempercayai
luk
shock
prime
ismail
mengidap
tega
tugu
menung
plugin
imut
##pulasi
ndak
##buhi
meluas
perbin
pertanyaannya
##tma
cangkir
sale
olehnya
menghindar
blitar
##jakarta
bisnisnya
laundry
##rar
3gp
##engat
memaksakan
mingguan
kecemasan
namja
##pose
menetes
berca
##tainya
geme
chil
bergo
hafi
kenari
pemecah
mustika
menanamkan
##goreng
bergaul
alp
##➖➖
alpukat
##goda
reuni
etik
##kre
##ramkan
lipstik
mengunggah
anon
##quez
syuting
##uw
rabb
pendatang
spare
##sihi
##tub
washing
lahirnya
simpang
##habilitasi
kejar
##68
menjauhi
cheat
baqarah
ika
value
viagra
suap
212
peti
1993
pkb
pembaruan
terburuk
sekelas
##gorikan
berje
pencat
yoo
uin
ros
sili
kyai
pembedahan
yohanes
lh
second
beranggapan
wri
parameter
manakah
##ceran
cru
##lanjuti
deter
konyol
##pensasi
mengup
capai
pokemon
bahasan
##ukuri
pandan
terburu
pembimbing
berbuah
##qui
lake
bilas
##lea
ketujuh
##omar
tw
cilacap
glukosa
layang
sind
pasifik
mengagumkan
nyoba
##31
mengizinkan
anwar
ilahi
terbentuknya
ditunjang
memecah
keistimewa
##sannya
bersenjata
awas
##organisasi
gerhana
adha
amatir
judulnya
##udaraan
##wahan
##here
##munity
memukau
##ditas
bagimu
local
restau
##sistan
purnama
##laba
ditemani
membina
komprehensif
##kuri
mahir
match
brun
pit
sna
ditayangkan
kemarahan
perempat
syn
matic
obli
##verage
kekasihnya
science
how
pacarnya
##tec
disapa
director
remi
darahnya
romawi
##rizon
luput
##entari
##unisasi
persiapkan
study
alo
tertular
jumpai
yak
idr
langkahnya
menggen
perbelanjaan
dm
deket
mencam
karaoke
##untukkan
menurutku
silinder
bertepatan
##dohan
prat
##rusalem
terlahir
tn
tap
satwa
mencerahkan
penyaluran
bereaksi
perseli
catering
dido
saji
##zard
ketiganya
dias
mek
katu
avan
dukun
##qwa
##tingkat
tweet
kreatifitas
negosiasi
penggerak
kebijak
linta
##lali
bodi
modis
bersepeda
ditonton
bertema
berkompe
kebohongan
##lpon
reg
dican
imbalan
cian
acer
kecap
laksanakan
gover
memproses
yeo
guide
blognya
berlian
ambisi
persaudaraan
rahman
token
fm
kurs
messenger
##agian
pese
otonomi
##cunya
address
##bed
pasu
##side
transformasi
##dalikan
johan
fundamental
pembina
pemantauan
perlukan
vip
subhanallah
komunis
pelecehan
esai
keas
##pper
khus
kaus
meminjam
##ilid
saint
kement
horm
##bintangi
komis
##cuk
sumberdaya
curu
sev
pasrah
##yuh
esen
fari
abdur
aktual
pool
hilir
diserang
karat
yoon
syai
##temp
avi
##gio
n3
kurir
seberang
brazil
penikmat
mengalihkan
ketenagakerjaan
technology
ahlu
its
majapahit
angan
orangtuanya
berobat
rub
reksa
lawannya
bantul
kero
dateng
kilat
mencon
inn
azi
berlawanan
pernafa
shopping
hmmm
kumpul
kelo
maafkan
hibah
habit
dagangan
algori
memberan
memberinya
paradigma
keraguan
kardus
##tiap
kapolsek
muridnya
dihubungkan
mengusulkan
##deg
salinan
jaring
##303
tagged
menyegarkan
perbuatannya
bertanggungjawab
abdi
dihadirkan
##tikus
diperintahkan
washington
areal
kevin
keliatan
catat
pintas
##hasia
ditembak
panjangnya
mujara
familiar
monyet
jaraknya
terlanjur
diseluruh
yong
pendingin
kee
pastilah
negri
dipro
god
private
nb
kementrian
##98
mapol
##koni
##tokol
gate
ix
seusai
argumen
keris
maksi
detil
yen
caku
paku
geografis
kehan
dzikir
##stil
beber
dimas
pir
sumbernya
musta
##sito
gandum
menyusuri
##sahakan
blackjack
##badinya
protokol
bertak
##bunga
##arau
property
dipindahkan
valen
subsc
institute
ukiran
memperlakukan
mengantongi
sina
realisasi
##covery
360
kapas
tuna
kanal
##patah
berlubang
firefox
shak
dikelilingi
timor
navigasi
mempertanyakan
ekso
aj
mengedit
empe
langganan
blues
pemotongan
mengob
dram
perancangan
mencicipi
dilantik
##instal
take
berbohong
merum
monumen
##lusuran
mendi
##kend
andro
front
menyanyikan
stafaband
sudi
##enag
meredakan
luna
referral
meneng
aduan
watt
pai
pengajian
##roll
sekutu
##turi
kurnia
ttg
1970
energy
##dow
cakupan
selimut
tatan
gunanya
hei
jombang
##aring
##danaan
debit
getaran
baj
pernafasan
anggun
dinasti
profile
menghendaki
lansia
bolak
##song
analis
donald
##dral
gurunya
elit
nambah
pencuri
perselisihan
cobaan
bersenang
##ato
teknisi
vii
prodi
##wel
##hidrasi
arteri
diiring
menyempurnakan
mujarab
sial
##cape
94
evolusi
soc
gym
flor
##agiakan
cpu
menyehatkan
traffic
penyuluhan
##arai
slam
memainkannya
melukis
tuliskan
##rans
velg
##enal
memulihkan
mengunakan
skandal
mlm
sekolahnya
s12
kurangi
##how
memaafkan
dilatih
##rium
perkuli
aami
##kp
sorotan
informasinya
intervensi
dikendalikan
lia
kaleng
panorama
nasionalisme
merchan
orange
siaga
pikirannya
##langga
##gory
jurnalistik
giat
dicuri
berpro
buncit
tertipu
score
charger
##sekan
kegembira
skr
neraca
##lajar
klaten
pembacaan
##raham
berteman
nsp
kognitif
memacu
lift
menggantung
lepaskan
diutamakan
720
##rove
hidayat
lingkungannya
vegas
menyayangi
ketahuilah
beach
ulangan
interaktif
serasa
kram
alarm
diusung
##inger
bertekad
berpesan
perkuliahan
kerudung
est
community
menyus
magic
##yoran
tertun
dijalani
smu
cost
menjelma
kasir
maknanya
rangsangan
nafkah
senada
sengit
##tabilitas
integrasi
kenakan
humor
aqidah
pemung
imigrasi
##oper
bot
conne
ach
##hil
duri
paparnya
buy
chang
unc
entre
bergetar
ue
akting
diwujudkan
weekend
apaan
menyita
##64
menikahi
agro
effect
yudi
isyarat
##klan
tenis
##pirkan
sni
##yaknya
paten
leluhur
processor
marquez
title
diklat
perceraian
roll
kesakitan
state
town
kesempurnaan
diiringi
sandia
baya
keistimewaan
##hie
maen
kewanitaan
have
amp
sintetis
dirjen
untukku
##wil
##wana
packing
sumbar
pelakunya
##his
dikenang
lol
##hhhh
garden
fai
kip
##awa
adven
horizon
yaman
luhur
##kenan
keilmuan
keterkaitan
beruntun
##ganda
berben
paripurna
penelusuran
angel
tembakau
##ise
menusuk
beb
narasumber
interview
analy
own
gelora
diagnosis
##fesi
ketrampilan
everton
berjenis
aplikasinya
sinilah
lapang
terpencil
kesepian
pertimbangkan
kekece
menabrak
berbincang
##pungan
table
##balkan
kyung
81
spanduk
pmi
loading
filosofi
kecurangan
mid
cintanya
mutasi
kencan
mojokerto
sandiaga
cawa
##yanti
##ombe
bergeng
seksama
##industri
maf
imunisasi
##bohkan
ruu
door
##urs
perbincangan
penjahat
duel
catur
zam
##larifikasi
ngeliat
season
koreksi
konstan
berbang
##payakan
diperuntukkan
adaptasi
konversi
penyidikan
penggantian
bahannya
terputus
finishing
urine
beracun
##hor
banyumas
kurban
pribadinya
radhiyallahu
times
##uthor
kemarau
ketebalan
ulah
cell
melulu
iris
menyedihkan
pusaka
eri
sit
counter
##ges
cianjur
diunggah
gamer
here
terigu
terban
please
anya
##peti
cum
chris
merindukan
muat
jahit
berjalannya
##ciptanya
chord
hilangkan
paduan
kroasia
##95
##udara
83
selaput
categories
##unge
nemu
pemasok
intelijen
tours
spring
##osis
bagaimanakah
rit
dibayarkan
diman
aduh
##maikan
##150
patroli
akui
toys
backup
pucat
hoki
diperkuat
##cuma
##chel
mendalami
##pansi
diskri
bergengsi
lorong
melempar
portable
smartfren
##laian
assalamu
##ksinya
berbahagia
##ribe
mengetik
kebijaksanaan
haru
##db
##budur
##kantor
kuatir
capres
moun
rumusan
aktifkan
penentu
dibanderol
kontemp
membran
cb
keharusan
tkp
turunnya
memetik
ekstrem
##sive
bap
verbal
kelangsungan
seung
terhormat
clas
grab
berc
october
pemot
demak
permus
mengkaji
##yas
kaltim
donor
hindia
kle
naungan
tato
memotret
bookmark
akbp
ridho
##change
fiber
jeda
satria
betis
mengadopsi
roy
##ktif
setelan
antisipasi
centre
rahimah
##foto
##bid
dominasi
berkeinginan
mengenang
dihilangkan
backpa
##dangi
##luang
dikalangan
##liskan
purwokerto
##olog
diabaikan
terp
aamiin
besutan
sevilla
scre
##embus
syek
##lekan
dituduh
1991
kultur
##gawaian
pras
resm
##mian
##soo
##ings
nyonya
yahya
semudah
borobudur
vu
##iaya
higi
dipertahankan
mts
wenger
##jit
leu
##kosaan
##urni
faham
##ronic
kaisar
berdirinya
terhenti
92
ff
dortm
week
belom
adver
sidik
alfa
menghiasi
##him
##gers
##lame
nyala
##katif
gore
denganku
solar
author
kebawah
monitoring
rehabilitasi
watu
signal
jt
enginee
ape
##tisme
bism
kepegawaian
##tipkan
prog
dortmund
atmosfer
dun
##sed
bertiga
berwa
bersamanya
##laah
membalik
##bako
panci
mencarinya
kpr
respons
expo
masehi
mente
rada
pencatatan
makanannya
berbakat
##web
asta
nice
makro
gela
menyuguhkan
month
kenalan
##muran
mesra
syahwat
ulu
dipadukan
mandar
sakura
mengangkut
penglihat
bersaudara
pecahan
ditandatangani
lha
perbaiki
syekh
##nis
satgas
chu
shower
tuban
menghafal
##toria
ale
bergem
fitrah
penat
nin
terik
curug
berkelas
kuartal
khat
##olo
filmnya
##wid
riba
menyalakan
penari
mekanik
ditanggung
berjangka
denganmu
hemorrho
valencia
donasi
##orejo
menampakkan
##dagangkan
sudahlah
menguras
casual
postur
menelepon
cuka
essen
##run
mengundurkan
empi
flat
tatanan
##sori
##ikasinya
sakong
keak
##tunan
ppp
peternak
dedi
pinang
terbawa
##enzo
sepatutnya
##kopi
sexy
istiq
##tologi
ketagihan
sekelilingnya
##ikal
nike
hae
penghitungan
surut
terjangkit
amb
##shar
membahagiakan
pondasi
terbebas
##dies
##knas
ultah
hadirkan
demonstrasi
##baik
lewatkan
serahkan
##gugat
patuh
keraton
##jad
gong
terjalin
central
hemorrhoid
bongkar
enjo
pendanaan
##mond
penjajahan
kambuh
serem
kegembiraan
vokal
menyisakan
##uli
##taian
lamongan
cikarang
##cokan
kesusahan
range
urin
obligasi
##print
##sona
tebak
##qa
bayam
dikhawatirkan
sedia
pentas
based
pembatasan
jilid
##paling
##usi
academ
kasusnya
wijaya
palace
tanggungjawab
grati
trek
ec
apalah
##lambatan
terkecil
101
anj
mematuhi
sebanding
sisinya
menghina
seoul
avanza
had
suspen
kebesaran
##tegorikan
##fsirkan
biayanya
mantra
silang
launching
iskandar
trofi
sedunia
theme
cerai
keingin
kejayaan
information
mona
inspiratif
island
predikat
mengom
banting
serbuk
gla
bmw
tm
berjamaah
berpegang
mencatatkan
##ctive
##lh
akik
bertambahnya
yel
peninggi
agaknya
bawahan
##gnosa
dipake
telegram
mengimp
##galkan
##aru
mengorbankan
direktori
bps
##lementasikan
rival
pdam
##card
dominoqq
sembako
mengoperasikan
##sinam
anjuran
bertolak
memenangi
kecintaan
170
hall
barangnya
drone
disun
kolonial
didi
##amad
menyelidiki
rbt
##rimanya
##sesuaian
temperatur
mengawal
##hehe
##kron
ketetapan
asso
performan
abal
nurani
kembangkan
rose
detailnya
disetiap
leice
mentrans
chart
##laiman
selayaknya
masyarakatnya
petang
arm
restaurant
solidari
alien
leicester
jurang
fl
ketertiban
empedu
penipu
##paku
##wed
##larut
corporate
sekuat
algoritma
pinjam
bidadari
grade
##kep
pendengaran
diberitahu
aib
oka
93
##riksakan
fos
retak
nawa
investigasi
perutnya
##96
##satkan
rendahnya
berjam
wira
##oi
donk
##presikan
vic
runtuh
kedamaian
##riahkan
penahan
heng
berlimpah
##long
kedekatan
##terinya
financial
sulut
##bayar
mangrove
menyempatkan
prom
capsu
##folio
ketaatan
dicegah
lalat
sukare
reservasi
subang
merta
menaiki
mempesona
keburukan
menjumpai
##gunan
##grek
persia
proto
##liakan
thread
tertekan
hurai
brebes
agamanya
longgar
turunan
diesel
mother
square
membongkar
inno
0857
jenggot
anu
lsm
efektivitas
pendakian
bridge
ilmunya
transp
melukai
inflamasi
##wich
insen
feel
susan
seleb
umurnya
hack
dilepaskan
beratnya
tiki
membanggakan
mekkah
tragis
maraknya
ditar
kodim
##sinambungan
ngeri
stake
khu
kanannya
benturan
##pusan
##hatin
##zone
##haru
##soli
terda
##turbasi
irwan
mempergunakan
##lokan
percayalah
bugar
hape
botak
berdurasi
beruang
disusul
##pretasi
oles
munchen
relation
mengherankan
akumin
##midzi
fifor
sume
pv
##sya
beku
tersum
defi
##engka
quad
kilo
meluangkan
bnn
royong
antrian
kelayakan
milih
##rlang
diki
kontroversi
akuminata
hlm
melestarikan
pemudi
dig
pendengar
ret
memun
rileks
##fic
alian
pertemanan
number
buruknya
slogan
##luki
##contoh
diserap
##nahkan
samudera
presen
plt
perpajakan
pengaman
gaul
pantauan
cod
rekam
##yout
cemilan
menggiurkan
##tosa
bentro
memalukan
rakyatnya
koq
##rt
perkakas
february
##rib
wes
1989
khala
give
impotensi
berpeluang
kemaluannya
##cted
reset
menuduh
coup
berkenalan
ngam
merumuskan
geografi
ditinjau
hiu
edition
salim
rahimahullah
terkaya
purwakarta
gelaran
seb
bermalam
##plus
membeng
history
##emo
##plikasi
tidurnya
pelepasan
resminya
laten
cela
pkl
leader
gim
teka
kemandirian
beraksi
jie
meminimalisir
duni
tps
frank
menaklukkan
zah
##pitan
terisi
##jolak
##bird
berpaling
bertuliskan
terlaksana
fantasi
great
terc
penin
grin
pepatah
yerusalem
##pton
kunjungannya
anehnya
teriakan
minah
emisi
gosok
mendengarnya
anggrek
edaran
skpd
maksiat
merekrut
leo
##ime
elite
traveler
mengur
dorong
malware
##dahului
magh
literasi
abn
##wawancara
##lung
luasnya
dimasa
konk
##ston
pelaksanaannya
penisnya
##cake
telak
terk
kemo
finance
lauk
teman2
penyajian
rain
##uruk
mahar
sulaiman
pilihannya
bismil
anni
letusan
lintasan
kyu
stimu
hyper
cemerlang
lapor
direksi
mencampur
slide
reza
##hirup
sorang
entrepreneur
adzan
haris
rob
adem
menjauhkan
mempercantik
diteruskan
bergulir
kkn
##fs
menghisap
harapannya
blm
terdeteksi
terbenam
hurairah
dibelakang
kekecewaan
##dakwah
##thing
router
##presentasikan
##keh
ratna
efeknya
adren
penghancur
punah
menukar
kuhp
vga
artikelnya
yakinlah
##teo
##opi
5000
##innya
biak
pant
ringkas
margin
##ville
##follow
mys
sbg
tesis
sembah
knal
ati
##vers
dial
diagram
nanas
express
tanjungpinang
realistis
pingin
pow
delegasi
##ploitasi
##lee
bertun
##kenankan
campurkan
sejuta
##dragon
##rajin
pemungutan
poros
ngak
##sist
sungkan
##joss
nuh
kontemporer
try
broad
akp
percuma
duanya
yani
friendly
penghapusan
disaksikan
bernafas
peli
perluasan
sekurang
anna
##kumpul
ustad
veget
mania
lengkapi
estimasi
magang
##jani
barusan
dikalahkan
css
py
sedot
segeralah
lili
solidaritas
percetakan
diizinkan
meteor
fix
mencintaimu
keranjang
camilan
cantumkan
anyar
##putra
mira
koma
komisaris
satpol
meninggikan
ding
qatar
esensial
bingkai
##isnya
organi
penandatangan
sekejap
menggapai
enaknya
penaf
penyerangan
rintangan
##bolinggo
##dologi
taufik
menjelajahi
mentega
kutub
uniknya
##garansi
tj
duo
dibenarkan
irit
category
ska
mensu
dibang
assa
##67
kolagen
optik
##ilang
berjudi
sosiologi
intan
sarat
##pala
adobe
ganja
pph
##tet
services
terulang
rapih
taruh
##life
kin
##cke
shan
patokan
race
lengket
##tiaan
##wp
teki
menganjurkan
keron
ghz
##dge
tirmidzi
penjudi
gawat
random
pamer
##cermin
pergelangan
bersembunyi
keriput
450
psm
##lahu
105
wkwkw
razia
aurat
##potkan
##jawaban
melapor
macan
ft
##reo
atta
balok
mug
simbo
treat
bergambar
rekon
menyesatkan
menggigit
moon
benar2
bawaslu
mountain
sne
username
ente
pengampun
awards
##perin
supply
pemandu
sepenuh
goresan
trick
insentif
##trin
##sono
membing
memerintah
segitu
piano
##lement
penyesalan
dehidrasi
diselamatkan
a€
rizal
kocok
suntik
bereks
prabu
kirinya
bolong
unta
berker
importir
diperlakukan
plak
diteliti
##zing
mempu
lubuk
polo
segelas
menginformasikan
tersam
##sume
sla
probolinggo
rudi
adek
keinginannya
labu
taraf
secang
bergizi
sugi
##ula
##tabel
knalpot
lurah
transisi
videonya
shut
##hur
##gmen
memilikinya
##ference
membacakan
perkenalkan
dahlan
rizki
##lambat
kapolda
nisa
nab
enjoy
##diola
seksualnya
##tiran
dikata
mileni
penduduknya
terawat
manja
diunduh
sand
kompi
comm
mara
pembuatannya
karirnya
uti
sdn
wit
engga
kelasnya
##diskusikan
memamerkan
yap
lampau
perta
habisnya
pose
selat
fee
novanto
sakitnya
betawi
move
##tole
membiayai
djar
senapan
sadis
laskar
##kopter
##down
tribunnews
kepadatan
kalla
##drat
##mpahkan
ubuntu
dirang
##oto
kompensasi
termo
##tifitas
joe
penyum
kontras
fiforlif
##ople
football
june
bertakwa
##rana
penuhi
##unyah
fina
##pologi
dicabut
amati
station
berprofesi
anjlok
dipikirkan
bintan
vil
berkoordinasi
mengasihi
journal
hey
riil
hipno
uns
pengaduan
disney
taeyeon
##hoyono
mengusap
hidupmu
helikopter
##orkan
skincare
kaitan
puteri
pilgub
sian
xii
idn
##taraan
recom
hafal
karan
##muti
gs
maritim
##beri
##etas
terkendali
##rumuskan
ramping
grav
##kaannya
##matif
ajakan
years
booming
becak
##hou
guardiola
pepo
eco
pemohon
##lakunya
tombak
tirta
medsos
kesebe
pramugari
pengka
##kenalan
nek
nias
lut
bersandar
##kian
ora
1960
chipset
khilafah
citi
##tingkan
##derajat
##jinkan
merambah
fly
perangsang
mengkhawatirkan
##wing
##yeol
associ
sekda
metodologi
fr
memperlancar
kehancuran
rias
niatnya
miris
genggam
moneter
prasa
##ahayaan
timbangan
pedih
##alin
sampeyan
dikategorikan
loket
kelopak
disingkat
produse
memburu
buff
tutupnya
kukus
days
branded
##lcome
panaskan
lorenzo
bayu
ppi
masturbasi
cah
kusu
seruan
darma
fro
mujah
750
perannya
dibo
tabu
cakra
residen
##46
##rok
after
##lintir
geologi
bhayang
beralamat
motornya
salut
##industrian
pegi
susilo
produser
ketombe
intip
powder
menjal
pundak
disalah
bermar
keanggo
loss
enteng
3000
deteksi
pencahayaan
gamb
permainannya
##judan
snapdragon
##aro
cuek
cumi
1x
halim
rebusan
moh
hamparan
cik
##rutan
perindustrian
tengok
##peg
berbunga
sejajar
##ensia
penghormatan
##cra
##tokan
menyantap
proteksi
##lisis
##lery
amplo
airport
melebar
##fli
ole
fiqih
matri
bersemi
terkuat
suko
diem
gencar
240
kafein
january
berlama
remo
pengrajin
komoditi
##wata
eceran
samud
pdi
spee
unli
nano
penyandang
screens
uv
##cci
diju
##akmuran
ritel
ranting
dst
nata
rider
ketertarikan
##any
##dane
beramal
posko
azab
adit
welcome
spin
pemasukan
sholeh
warganya
dihuni
##jizat
##iya
atlan
digit
muha
sebisa
matikan
hentikan
##bahar
##ingi
myung
credit
f1
hasilkan
##belih
bidangnya
amplop
goo
##point
ilham
lionel
menandai
mikroba
sout
dark
kemasyarakatan
fox
saudaraku
aci
pertanggungjawaban
terkumpul
diponegoro
##gradasi
mixe
lbh
lecet
menyandang
dikombinasikan
ampe
melen
menyamakan
mirror
yeon
qura
##orogo
mou
melonjak
dioperasikan
other
##zieq
arya
demokratis
adab
kemenag
menyik
mencontoh
gsm
kidul
mixer
biologis
ambejoss
seat
##amp
membengkak
notaben
puncaknya
##det
kerak
##oksida
##pass
masu
kelembagaan
eksplorasi
##ategorized
sertakan
perkenalan
subs
##emar
##fiq
dilupakan
memil
ending
yudhoyono
##rbu
tiger
##som
##rency
##laborasi
uber
kerbau
lereng
chal
disiarkan
tuhanmu
mengki
nikmatnya
steri
sedan
kebenarannya
##edah
terharu
kitchen
keker
mengasah
##stream
arifin
snack
dash
islamic
suntikan
menggandeng
fish
buntu
diputuskan
trailer
##lica
genteng
jadul
kepalaku
interface
tampilannya
##bukkan
aspal
blus
gemilang
##mpahan
##pelkan
afghan
##rl
fpi
tersesat
##sele
datanglah
imlek
stylish
dermaga
biografi
##gli
spirit
right
minho
tetapkan
kapolri
##laq
hendra
kebocoran
mengamalkan
bibi
raihan
##pod
adakan
berd
franchi
##els
intl
econ
melambangkan
polresta
cbr
doyan
namaku
waralaba
##ringan
menemukannya
##chet
mengeras
hakekat
sebagi
membung
baekhyun
monas
menerimanya
##tics
kalium
ladies
##tery
asuh
angsuran
##cp
##tatif
prinsipnya
pack
kewirau
##utarakan
late
hs
cour
##hm
rumahku
persembahan
publis
##4d
lapas
retail
berlan
nonstop
amo
ciamis
girls
##bril
entahlah
##uruti
bertenaga
sic
##100
menyulut
kompu
persendian
eksterior
hebatnya
amarah
##station
yeoja
menyukainya
plant
selesaikan
sweet
santa
prosesi
horizontal
heart
meragukan
menyebe
bagin
asep
topeng
lk
eas
zom
penyair
membiasakan
lembang
mempersembahkan
bertau
sketsa
pepohonan
people
rizieq
pelet
##ical
switch
ts
##kuni
gl
payment
umi
didefinisikan
1985
fosil
menjunjung
dear
performance
##lation
clin
cotton
pengurusan
petinggi
dora
tanggap
emir
##house
berurusan
##bour
##sahi
astronomi
cana
south
135
disebe
diakhiri
kewirausahaan
berb
sederajat
sedari
memakainya
wonder
riya
denmark
magister
uncategorized
thi
berdagang
unlimited
federal
moz
gusi
desainnya
konsultasikan
estetika
mazhab
sporty
ponorogo
slamet
kemaluanku
sebelas
serasi
pantang
sapaan
berhala
kepat
##well
couple
##bunda
henry
pengirim
menyumbang
daw
tukas
##dapan
##malisasi
ina
got
andaikan
jkt
exchange
pendampingan
##verifikasi
##tibmas
bella
viii
hayati
prihatin
mengajari
peker
##cir
tercampur
indera
##rier
##oid
kepun
ihsg
gesekan
rati
whe
sufi
capsule
pkk
##97
pegal
queen
preman
menggeleng
bergeser
alim
veteran
bokong
nou
penambah
pangsa
aga
only
pilek
thank
adventure
perasaannya
rece
##telan
dising
kuis
##plain
salman
bersekolah
##rub
perlunya
dieks
disayangkan
penyayang
##pob
meraup
menginstall
lalui
dibayangkan
khalayak
##jati
##ree
perjalanannya
doi
fasa
mekah
crypto
##kb
berlin
bergaransi
juz
tersirat
proklamasi
##85
chandra
spekulasi
blender
##awan
hasy
dicirikan
duniawi
##kers
penafsiran
1080
##fect
panca
dilayani
dinon
renyah
berlipat
luis
cuplikan
##skop
mujahid
cawapres
##litkan
pj
boros
ariel
##ond
samudra
oran
##cium
lotion
##wargan
##sot
turbo
mukanya
mw
kerus
diperdagangkan
1986
melati
tiff
dimintai
safari
ann
aksinya
##tihad
motiv
pinter
kuncinya
kubah
denga
administrator
1950
sarah
daur
waduh
##pindahan
##ov
gurun
belok
penganut
##gelaran
##takhir
##baan
##jahit
ngakak
duga
nyenyak
##baharui
mengkritik
voli
kendari
##gairah
mengimbau
biarpun
##cl
swan
jeli
anis
abnormal
##stim
intens
spbu
uas
mangkuk
perhe
muna
lukman
penghalang
seringnya
injeksi
detak
##siksa
habitat
birahi
keramaian
s3
tay
##cup
mengadu
luhan
masi
memerah
pelestarian
nyang
pengaruhnya
berini
bbc
##dn
musy
dikejar
bob
##pektasi
berbekal
taruna
sepupu
abah
memperingatkan
##sab
perpindahan
##seran
sampingnya
##jong
##days
terusan
diplom
kelakuan
berilah
##hendaki
remas
##dja
bernapas
customernya
pelayaran
dibebaskan
diamati
resource
##bet88
pemberontakan
berapi
amien
mengunci
arke
recovery
bass
airlangga
##timun
payudaranya
1988
franchise
perasan
ajukan
##94
diresmikan
silabus
##sex
analog
##hinne
jagoan
padam
dalem
mengar
##porasi
##edia
aziz
vas
martabat
##bihnya
subscribe
##bili
ekspansi
##ration
maunya
##ather
siku
pesti
dijem
ipb
##eee
inv
kupon
##omen
lifestyle
bergairah
bisul
dance
gunawan
hormonal
plafon
persebaya
91
masing2
##onic
##isisi
kerum
telaga
terampil
kronik
polandia
##bangi
tebu
kembalikan
ditindak
mengobrol
mot
ambang
direbus
tetang
bath
sembarang
##balap
tumbuhnya
religius
##ties
gotong
##pert
##taro
np
penyelamatan
psikolog
terciptanya
##wanto
menuntaskan
##mud
kerusuhan
kepon
machine
advance
minang
##wulan
statusnya
##jelas
dikehendaki
lagipula
menganut
perpe
nila
##toro
nitro
dinonaktifkan
##bukaan
abdurrahman
biz
kompeten
europa
##ahh
bulus
hina
##sasinya
##kecil
putuskan
indust
memung
kemakmuran
jacket
fenomenal
kekeli
hj
##blat
mag
dimak
kependidikan
##urun
pengania
keari
irigasi
omong
doktrin
berselang
parasit
berdiam
mengabadikan
kantornya
ditunda
pekat
katup
##presiden
meresap
resistan
bangsawan
0821
habiskan
##guay
komodo
sra
ayahku
simpanan
semprot
kancing
##wih
kurasakan
##teknik
yos
straw
polip
eku
##syaratkan
freeport
kompo
##arth
kepo
##tox
inspek
ahh
louis
##rial
editing
dilam
berpusat
kening
##kuman
115
keripik
mengulangi
every
konsti
htc
##engi
mementingkan
peres
stakehol
perkumpulan
godaan
sindrom
siak
bertumbuh
menuntun
historis
perhelatan
thr
selebihnya
ulangi
three
menggosok
##bankan
aya
kwalitas
##bk
##vey
##gagung
choco
beijing
zina
menikmat
penganiayaan
varietas
##monisan
aliansi
memperlambat
dijanjikan
pestisida
electronic
gear
july
keseruan
hipotesis
##urutan
1965
dibawakan
berlayar
##wiyah
##lakkan
syirik
defisit
menyiksa
mencinta
dekatnya
puri
agr
bug
selaras
setya
##format
boat
##tenan
081
semaksimal
dal
tandang
##taminasi
miras
semangka
nurul
##hed
jelajah
seberat
##tsp
menyeramkan
##kata
dilewati
hatilah
divonis
bobo
##vention
dibar
berhijab
mereng
pengawal
diperankan
##sue
##trading
penekanan
renggang
azhar
mentimun
ppob
leon
kebodohan
deep
##isy
rpm
jusuf
liqu
afghanistan
##oritaskan
##code
##zh
ribut
keterbukaan
osteo
apps
csr
academy
terangsang
mengum
menyebalkan
berinisial
bilik
cf
suite
##pee
##cius
tirai
s128
##yatan
##ica
evakuasi
membingungkan
kearifan
mukena
merepotkan
##laf
kolektif
diwakili
##bana
memadukan
gratisan
tegar
ngantuk
dilanda
##pb
shang
spekta
tertahan
seen
mengindikasikan
terbunuh
disahkan
tandai
berser
165
serunya
menjalar
mengencangkan
berto
sinkron
##gner
result
mewajibkan
maling
kira2
jahitan
bagasi
berco
communi
passion
guest
memar
gugup
prasasti
jabatannya
sorry
##fungsikan
##ental
benz
##sumsinya
melipat
memanglah
dibungkus
##waskan
margar
kehebatan
ov
chanyeol
bem
##fisi
mering
koroner
ppk
singkatnya
esdm
oris
pinta
kiu
mengkonfirmasi
satpam
terca
reu
mendefinisikan
agri
ditjen
resor
tunas
syarif
1984
ojk
terhambat
##gba
belu
makannya
mengintip
mengantuk
##disiplin
jogjakarta
rp5
board
bebe
kedutaan
bacalah
kenyal
##ampuan
dijuluki
xx
kepiting
sanad
dubai
320
sabuk
loya
bolu
str
##muka
munaf
keterlambatan
rahang
##rilaku
bisik
pribumi
sabang
##warganegaraan
skrg
jatuhnya
##puluh
income
bernuansa
##ontok
##°c
1987
##ira
entitas
egois
##tary
kulon
mogok
keragaman
##ffen
vena
dihormati
hektare
mio
##pita
storage
nh
kayanya
##86
bertaubat
dekan
nim
dengarkan
##palan
remeh
ain
tehnik
keponakan
use
lada
##oneksi
tergiur
tomo
##derhan
##uti
##lembung
disinilah
force
##dulikan
##luruskan
qurban
##diah
dahi
##ktian
dibuatnya
keanggotaan
wudhu
bapaknya
##pact
dilangsungkan
sesampainya
##47
##ciuman
lucky
lawas
deputi
##tr
rabi
change
hotspur
ditugaskan
keaneka
ivan
menjerit
curang
##politan
pengikutnya
ditak
nash
penyang
resepsi
##solidasi
pangandaran
123
menewaskan
digu
tanduk
pengk
cilik
genset
prakti
##zak
##taruhkan
medical
memperbarui
kpd
dslr
##job
berlindung
perhatiannya
pesepak
little
butter
treatment
ngajak
kisahnya
kritikan
diwaspadai
##pahaman
rohing
musti
pembuktian
apa2
berdomisili
mayor
mencela
##lad
digoreng
##amai
korporasi
gigitan
roket
mcm
##hero
##oreksi
puding
##mus
kekeliruan
party
##lamana
melum
elo
pendekar
budha
penembakan
##hampton
idi
integ
diego
muni
objektif
udh
chef
##inese
memah
montok
dilapisi
sunset
pakailah
konstipasi
##gd
kepengurusan
liberal
lock
menghukum
##omah
perdata
tambak
pandangannya
tersumbat
dikhususkan
bercerai
membantunya
isian
messa
umatnya
tempatkan
berjilbab
irlandia
kontin
kehadirannya
hyo
standart
aren
menghimbau
majikan
menikmatinya
##luti
tulun
return
ngaku
lumba
##its
##cts
disalurkan
ads
berme
lekas
anat
literatur
rapuh
gojek
pelopor
azza
minimarket
##pidana
##pie
mengabdi
ziarah
execu
duc
102
##ners
dibikin
trending
ulat
pelembab
baginda
##sarjana
sekeluarga
mengoleksi
dikira
dipelihara
instant
dipat
edge
paran
##daman
swi
strip
##zhab
bilamana
konvensi
eps
melingkar
akumulasi
bicarakan
denyut
##jik
charge
##odie
garasi
##utbah
petarung
linke
meramaikan
mengkom
cele
jibril
tape
christian
terhi
##waku
parlay
rani
segu
jubah
siksa
magnesium
##anah
peranti
minahasa
focus
konsistensi
ditargetkan
##uhu
kesebelasan
kekurangannya
liquid
printing
octa
##mand
deposito
related
rach
pratama
gallery
jul
##ralitas
##denya
lidahnya
capital
gil
##osari
##cken
legalitas
gli
aksara
##boja
pengawet
daerahnya
perbedaannya
becus
begitupun
dipecat
4x
bangk
dibacakan
restart
inspeksi
pergeseran
maki
publish
mandarin
portofolio
detek
pebalap
##meter
##loa
inbox
ngem
memancarkan
##ood
ekspektasi
outbound
##tex
furnitur
aqua
jaw
merendahkan
tulungagung
nona
##cunan
choi
penuntut
kalbar
bertengkar
##له
maulana
##buah
tuangkan
cabut
bertunas
tbc
candle
1439
geleng
##hinneka
bendungan
##gulangi
panji
pirang
##kie
tumpang
berduka
##leting
##fel
klim
kontraksi
##litatif
##iiii
##neo
ijo
##toskop
##goh
##reme
mengabarkan
maghrib
akademisi
mengisahkan
optimasi
kekacauan
uno
od
bersuara
##jjah
##sert
zh
##trika
rini
220
struktural
sungmin
direct
baking
lc
dipicu
branding
lazio
##pho
bhayangkara
asset
reward
salad
menco
diskriminasi
zain
##ester
bersedih
hakikatnya
1500
pemir
transit
travelling
##getahuan
burger
ikhwan
taurat
fx
uefa
sumen
##mulator
bhinneka
##250
laa
akademis
neur
##lannya
kuan
sambut
report
##nk
pengalamannya
tax
didiagnosis
kids
##atuk
##tkan
sepotong
milenial
abso
##hadi
mengalaminya
membuatkan
disabilitas
titi
exo
##botan
##clo
menopang
kesetiaan
adikku
wilayahnya
dae
##biyah
cae
macem
toket
tiffany
tuhannya
mengikutinya
ketan
##hebat
ctrl
pacu
hay
spektakuler
##lion
berkesinambungan
##fin
akidah
melelahkan
suv
resah
paral
arth
##jog
tanyaku
clear
pengoperasi
arom
##entinya
teruskan
bts
ups
tuang
berkonsentrasi
tertanam
155
antena
terlintas
degan
kegu
##laksasi
mengekspresikan
kot
rakaat
harddisk
meditasi
keracunan
##angatan
menuruti
farm
##food
ck
nadi
penandatanganan
karanganyar
nyampe
boyo
dog
krusial
berlainan
informasikan
rey
##dekah
mengutus
menghela
berkompetisi
kesehatannya
penerjemah
pelbagai
ingatkan
diseli
presi
kacangan
diperkosa
putranya
menggenggam
keluh
emp
holi
pengobatannya
pengunduran
##ridor
##kuatan
kada
permukiman
education
purna
diploma
kegiatannya
berkeringat
syaratnya
karung
risi
kadangkala
adidas
ox
patch
dum
##duate
justin
##ompa
pinte
##cim
##row
pmk
stay
##tanggaan
kyo
sepekan
syur
##sas
##tekkan
vul
pantangan
mempelai
femin
##mel
stem
antonio
tenun
kekeringan
pemetaan
sumenep
dayak
penyewaan
gunakanlah
lompat
1920
pengering
##dukannya
andil
##rad
kontrover
##say
menyur
pendo
insom
indrama
bega
dramatis
ryan
substansi
talk
revie
##prise
disebelah
berg
sebabkan
jr
sekumpulan
aktivasi
terwujudnya
selular
berbadan
mung
balu
nasu
tepuk
secret
##brid
lipatan
##zin
kebajikan
tumb
jauhi
pengemis
##zet
##nd
canggung
prim
pencairan
explorer
gulung
retribusi
mobilitas
##cent
ppn
##84
diburu
chen
lingga
sovi
maps
##ongkrak
paslon
##hering
##likon
wakaf
##ahaha
lafa
dibatalkan
realita
jendral
look
bpbd
##cua
affili
##mg
sinta
pemindahan
1983
##jet
indramayu
abraham
administratif
terlampau
zero
sahabatku
vegetarian
sahut
##omor
##tegori
##cell
wajahku
keanekaragaman
bertandang
##bauan
rematik
menyelam
cegah
notabene
gorengan
merak
autom
##ora
gera
dieng
starter
pemburu
##tional
##uke
menangkan
secangkir
bundes
##lines
##kular
menyalahi
geser
jua
holdem
ranking
rohingya
diek
genitalnya
##diknas
nantikan
##dji
cilegon
keadaannya
ptk
denature
megawati
refresh
pinterest
keruk
sno
tatap
##utang
firm
##ritan
##kunci
kelalaian
sean
##tage
cimahi
ovari
##jawabkan
ea
suster
mafia
zidane
balance
segudang
padu
berpura
bergen
ajarkan
kehangatan
##berita
##93
berakhirnya
ubud
pendataan
binomo
sembunyi
##city
takaran
kerumahtanggaan
##rupsi
kodepos
##hyuk
berwujud
eksotis
##zel
laporkan
beginilah
our
tertuang
lebak
baka
##sultanan
edy
##riyah
brus
prabayar
soleh
shampoo
##kripsi
##adat
saingan
berpeng
steve
tusuk
arang
##forex
fur
ukra
bercahaya
seaf
jos
polis
##stone
bangkai
quick
##kow
1982
diperbarui
narasi
temurun
battle
popok
kejelasan
gero
frus
indoor
alpha
##hatinkan
much
packa
gramedia
percinta
berbulan
##bahasa
jln
berbanding
##ralisme
kejan
sumedang
ie
pg
tangis
##vera
dihiasi
tahi
terpakai
##wono
embun
kekeluar
gama
bermas
victoria
menyertai
multif
incaran
bordir
dipungut
pelat
penawar
angk
##tuti
jumbo
klarifikasi
bpkb
dihe
resisten
lovebird
hasyim
vakum
##arisma
tergoda
field
elang
snmptn
wei
##ace
terumbu
##rio
dipasaran
modelnya
richard
berkolaborasi
lux
akuntan
##met
politeknik
america
flora
mentari
##rasinya
bernegara
##amakan
provo
kekeluargaan
tertata
matte
sistim
terbuang
flow
##dagri
##sialisasikan
bersum
irfan
cermati
mutakhir
mendung
tisu
sctv
mengupas
berz
perbanyak
smpn
serpong
##silahkan
##has
halangan
waduk
111
##asaannya
close
pick
sportsbook
gusti
merpati
capaian
zombie
menghirup
upt
insomnia
kesenjangan
akurasi
aksesori
sunyi
##case
##kip
##comm
##rini
rembang
hotspot
##onalitas
ditrans
zon
##master
mentor
penambangan
mapan
kesesuaian
akankah
##cator
kenang
minoritas
oo
silikon
header
ridha
pergilah
kantin
aksen
##ros
kontroversial
seorangpun
##rejo
##olusi
soviet
jiwanya
##hee
membalikkan
pendukungnya
blora
kamboja
##organisme
genggaman
millen
masy
ooo
k3
waspadai
deal
tiba2
rusa
bantuannya
##zam
sym
konsen
bajunya
memburuk
trendy
kualitatif
ovarium
##pem
manakala
##ledge
##tenya
##dika
koridor
##haj
##adanya
melemparkan
praktikum
minangka
proye
pucuk
pembatalan
cookies
progre
##ppy
condi
charles
nyanyian
didasari
##resi
ibunda
##terus
oposisi
angkut
axis
##leg
pascasarjana
mengampuni
namakan
supri
salwa
dimenangkan
bendah
risikonya
membernya
budiman
seafood
watak
sulitnya
kemun
mabes
narapidana
dimungkinkan
tertunda
blow
mohammad
tumbang
treng
##kidul
##emin
bernanah
##wariskan
paren
penyebar
mentransfer
db
rampung
donat
sajak
regenerasi
iuran
menyulitkan
kompetitor
hajat
185
##bakti
menggugah
mengalah
berpikiran
##ways
hardisk
ks
mencem
##pause
manusiawi
menyumbangkan
jagalah
boyolali
##posisikan
angeles
manik
baitu
piksel
wargan
##raya
kusuma
pair
##tuhanan
hamzah
wisma
penghujung
nana
purbal
##tty
idealnya
pemangku
arwah
runner
penggemarnya
diusulkan
dirin
desakan
sooyoung
hani
zionis
git
kepergian
digo
rentannya
survi
gravitasi
strawberry
frustasi
tangani
loyalitas
datanya
##this
sampo
terbayang
meletus
konektivitas
industry
##torkan
pemus
binaan
piutang
assist
diganggu
##arto
mengai
berseri
sticker
##uratan
##mpung
lalai
tontonan
munafik
santoso
parang
diperkenankan
##wuf
penemu
##aruan
##urusi
##umu
ferry
beralasan
sad
kebal
##luaskan
peresmian
memperkaya
bw
nex
kuba
trima
##very
##rakter
##diq
austri
##dos
tumpah
merangkum
reuters
##ssy
keep
nico
hobby
kutip
menyengat
sampul
mungkinkah
dirugikan
christ
antibo
penyusun
gejolak
##jono
kades
dha
mengemas
ornamen
fleksibilitas
konsolidasi
##unium
##char
##luster
aven
##gensi
mami
marmer
##imbangkan
belt
butiran
berpihak
ass
wulan
voice
kapitalisme
mengeluhkan
diram
spider
cache
##ongo
honey
##onitor
##ac
dituliskan
rina
bangkrut
gali
pantatnya
memeriahkan
koki
nop
ava
berjaya
##cualian
cowo
perusaha
selektif
bully
equ
kompati
fiqh
berkeli
kick
ves
abaikan
pantun
##91
elok
##rist
influ
didaerah
nasdem
lumrah
pencucian
kristi
##lanan
instruktur
hiks
sentimen
sariawan
bendahara
memperebutkan
berjaga
affiliate
kocak
##inir
pengkajian
##atap
lounge
##amon
kanopi
minangkabau
gom
##rn
terbaca
menjilati
spekulum
##ikata
haknya
cium
berar
bee
##dewa
hardcore
alfam
seven
sembuhkan
##beth
aje
spray
menundukkan
korbannya
abses
melakoni
p2
sista
legends
plasma
child
pedalaman
##tom
ringkasan
bersumpah
hiz
tekun
lazimnya
village
pembaharuan
sumbawa
culture
kardio
cacar
folat
melia
kejauhan
##bullah
dibarengi
cape
keharmonisan
pertambahan
kancah
silu
yuni
##paka
diikat
eric
ketang
kitty
##kominfo
seadanya
expert
lewati
borneo
okay
##lasifikasi
chem
austria
bundesliga
berjerawat
##ure
some
merinding
##neum
andy
smith
suzy
##uhkan
fotocopy
nasrani
##sign
pemirsa
suspensi
ipar
phy
psikis
toraja
safe
terlatih
sekjen
jalla
##sius
##umpama
gaze
karim
aba
sambungnya
dau
perfect
sisihkan
building
fotoko
taubat
there
lal
tasa
preview
##garai
##tahkan
beresolusi
finis
nm
boe
percintaan
gathering
pemisahan
khutbah
##71
communication
proporsional
lipi
seumpama
jek
##inase
sulung
##groho
luntur
iptek
##birakan
lagian
##capan
berbisik
ambi
penanggung
kewarganegaraan
celcius
proktoskop
mistis
hakiki
humanpa
deg
kendal
sragen
terpandang
lakukanlah
dinyanyi
acco
resensi
##orkel
ducati
kredibilitas
kay
melar
suri
humanpapilloma
auditor
jenius
pembenahan
bertubuh
##atisasi
wni
dicek
pundi
ekstensi
tertuju
mengko
##vina
##etan
##okong
103
brewok
memberitakan
naiknya
tabloid
alay
rangga
bengkalis
habibie
facial
rights
##uad
sepuas
kesegaran
ketuhanan
penyisihan
zoom
diuraikan
ancol
##umah
bele
mengelus
##lux
menjuarai
rangkuman
sprei
harun
mulutku
minggunya
purbalingga
brim
merun
insi
casi
kamil
mikroorganisme
pengesahan
masya
lehernya
kiblat
##lain
berperilaku
sekecil
ukraina
loka
##emi
penanda
##wujudan
##cht
##fud
menyerukan
rawit
creative
pembatas
reply
salatiga
##araja
##tanggapi
##stry
peraba
##snamakan
imran
sorga
two
neh
bahawa
pemerkosaan
dime
##keu
##selerasi
legi
headset
gn
generator
darimana
##arez
terpuruk
##itis
##haan
fermentasi
vitalitas
barito
finalis
badung
naba
inap
menj
kerupuk
##inum
policy
screenshot
##ations
bersila
##kol
terhapus
oce
ternate
##sukses
##laahu
bsd
penyiaran
dimo
suplai
338
perebutan
menjualnya
lipstick
pps
terangan
berhu
##nologi
parcel
##ringi
petrus
libi
sukarela
rais
klopp
berkaca
ukir
trail
memfokuskan
mysql
mengisap
112
caesar
masanya
nova
##tanggungjawabkan
diperlihatkan
##batang
geram
##amah
menyambung
##mes
pembangun
kerukunan
sejarahnya
salmon
kukar
##parah
dicantumkan
0822
##atunya
##koli
kesultanan
##wes
##gie
mimin
##singan
##41
menjawabnya
menelpon
butik
daj
classic
feature
##test
jangankan
penyakitnya
menafsirkan
notaris
##mawati
tekstil
achmad
piece
memprihatinkan
alexan
##dator
pengung
ked
berkelompok
sett
##mia
tarakan
wardah
gelembung
##ends
##73
fahri
traff
bird
##fiah
neng
##tru
hartanya
##cko
mumpung
999
##nai
oscar
eleven
mengerahkan
menangkal
##hel
bosen
berbulu
kelar
ditempati
##dine
permusuhan
ame
koruptor
##knologi
uh
mereme
snorkel
keping
shoo
melunasi
108
alfamart
keikh
pelita
dapo
irisan
##tee
disebar
##lupas
##out
ink
estro
sosis
vonis
##eth
pernikahannya
diblokir
dihimpun
explore
menekuni
##tulkan
place
grey
mendesah
klimaks
window
memeriksakan
hyuk
imi
keberkahan
madzhab
acaranya
tube
propa
berpan
berdebar
##sali
hid
centang
##sson
lus
meremehkan
nyambung
hengkang
maryam
nasution
berkurangnya
steak
##fen
andaikata
pelihara
dosanya
ampunan
merangkul
talenta
menghindarkan
albani
gazebo
impi
tapak
takjub
terbantu
acap
tiram
kontrakan
antri
apr
tiroid
merce
hybrid
terpapar
collection
memberantas
selandia
##jot
langua
estrogen
amne
tham
##53
meninggalkannya
timah
##lite
##vir
bmkg
dhani
##zation
mencurigakan
sikapnya
berwi
balkon
galaksi
dicerna
perik
kerinduan
diwarnai
nalu
reality
girang
hayat
monaco
##tagon
perpecahan
dipajang
mart
copa
canada
menyedot
##cung
darus
disematkan
feedback
mengimbang
##jogja
##home
spread
lisa
##latra
ngopi
isterinya
mud
terkunci
keutuhan
shift
shalawat
keikhlasan
sumba
rayap
dien
##suan
saka
shaha
kuasai
arca
##atau
jagat
informal
dil
nal
mengincar
var
berlen
phi
memilki
##berikan
inchi
setiawan
terangkat
soccer
##ampilan
##dambakan
ful
zinc
##riusan
brother
##tegrasikan
relaksasi
##wedan
##vert
mengatasnamakan
kasual
vulkan
membasahi
menggeser
katarak
loyang
cham
tito
sesuka
politikus
##didik
arjun
##rp
reak
mia
memodifikasi
east
student
bertebaran
berlapis
kemewahan
qo
berbangsa
southampton
brimob
tabrakan
kelestarian
didownload
ope
drag
inkon
nina
hembusan
muter
help
menentu
terjadilah
diim
##76
##cture
katak
kepatuhan
melengkung
mimbar
mining
lumia
plot
cus
gerobak
##iman
kekuatannya
##wongan
matius
kagak
dibintangi
##fektif
liur
fitness
handi
kontri
anakan
berbon
##yok
didatangi
menyeret
pakaiannya
##tilasi
elf
sayangi
joh
dawud
##fusi
pimpin
microsd
memerankan
##akers
gado
pengatur
##pare
104
##fisika
##zzle
kecang
gunungkidul
perpu
praset
ltd
tis
lego
midd
dituangkan
##74
menawar
path
menero
berry
blogthis
lobi
tender
##rism
anto
keguguran
##jatkan
dajjal
lukis
berdatangan
penjagaan
##seksual
##dahi
simon
danamon
istan
pengisi
tandanya
berkekuatan
##oe
cast
tersaji
sap
restu
diling
graha
nahd
menyapu
##untunan
abe
btn
pandu
kloset
segelintir
wabah
membentang
rp2
reporter
joker123
cagar
##79
pelumas
suhar
jarinya
otaknya
toner
antarmuka
syahrini
parut
##vio
kuli
##nover
doanya
jala
teduh
bahari
maulid
flav
mike
menore
##inovasi
selamatkan
bike
jour
didatangkan
penak
competi
##gangi
dja
lumpuh
repli
##sulit
memberikannya
atik
pogba
dilewatkan
##89
martabak
##onalis
tanyanya
pneum
082
ym
berskala
##balinya
waras
pistol
rober
owne
##ents
tuhanku
colok
merica
##asihat
piagam
gunting
vera
tpi
rcti
##tenance
##inee
iming
belia
pankre
feng
caption
pagu
##promi
##ragan
menguraikan
rooney
berkarakter
owner
memblokir
##block
marc
challen
pasan
downline
murahan
nugroho
perabotan
reader
memperhitungkan
##xion
##djo
pemudik
##order
kosan
ptn
months
sanitasi
profesionalisme
dk
saudari
lesbian
ekologi
jawabku
dipikir
kanvas
keseriusan
##tuhkannya
walatra
beraktifitas
biang
sebah
sv
fortun
wiro
mengabulkan
hargai
need
draw
telun
sbmptn
##sss
perteng
##hare
society
tarawih
alexa
##mmd
perbuat
tampang
mulyani
diprak
pernik
pelacur
champion
responsif
malaka
blank
##ip
dito
pemberontak
##ordon
##away
bertingkat
jacks
sq
vokalis
sekar
menularkan
degradasi
memandangi
superi
thalib
bungsu
##eeee
menghantam
pengecualian
manda
manife
dikabulkan
yuli
wonogiri
perseling
kebutuhannya
stnk
komentarnya
jepre
kalsel
##derhanaan
jaka
##yalan
perwujudan
##69
eta
dt
disatu
sebarkan
##phen
tika
mengingkari
fisiknya
bibirku
ketepatan
##leno
##ometri
##ragam
booth
das
175
fotokopi
ish
##kalisasi
beau
proxy
psy
nabati
##bt
pembo
##raukan
kelambu
4gb
##inga
tao
##ant
sebenar
zip
kupas
bantalan
dialo
elastis
hidrogen
masji
dariku
adap
baswedan
berkulit
sudahkah
##ziarah
mv
menjilat
dangkal
celaka
mencintainya
amar
pendapatnya
istiadat
pee
invest
dilipat
sleep
rp3
vpn
##vard
serah
berhitung
ning
pemeriksa
transparansi
diperpanjang
repre
imbas
menaungi
##ponik
guling
kontolku
ajah
polem
cengan
teologi
agregat
kijang
serigala
##patannya
dewata
ground
tmmd
kepikiran
kav
##rison
panasnya
peraga
terkalahkan
kt
##dulan
disimak
tuntunan
1974
antro
telunjuk
meriwayatkan
easy
kalku
pejalan
pertengkaran
##ranti
menguap
##vakuasi
perselingkuhan
mengharap
##cart
officer
flores
mina
nominasi
mendiskusikan
daring
konspirasi
berkreasi
recommen
perunggu
bersalin
bln
pungutan
sher
mengobat
earth
temanmu
layout
ditegaskan
triwulan
executive
nopember
maintenance
terjawab
##geria
laila
##ppe
ditakuti
kuantitatif
vla
terekam
diungkap
superhero
berseli
oten
bidik
mengurusi
grow
bimbang
##berkan
dinyanyikan
berdampingan
semang
##yuan
peraih
dilon
##unggulkan
yogurt
eom
anonim
meredam
iba
diaduk
agency
oe
##dex
juve
progresif
disuguhkan
selebritis
nitrogen
mendongkrak
aplikasikan
unggas
kesetaraan
tlp
minimnya
petro
dipertanyakan
sepertiga
dzul
##park
knowledge
angelica
kata2
menuangkan
maxim
solat
unggah
virgin
libido
bismillah
produksinya
terpisahkan
berpacaran
dihancurkan
abs
quote
menetra
brokoli
##toar
diulas
pekarangan
ht
portugis
##ualitas
empiris
##mpar
##tuhnya
daunnya
##omy
language
doraemon
termudah
indie
selembar
##umpukan
merealisasikan
uruguay
pengasuh
##tury
dee
##hori
beranak
uma
kabid
steven
psk
why
ortu
flan
organiz
kebon
menggembirakan
##poskan
solopos
##jaz
trainer
mercedes
dibalas
##golongkan
cukur
lesu
##kutserta
sekat
dikaji
engineering
robin
sanak
ila
menegur
penundaan
sere
cukuplah
eva
kerasnya
berkeliaran
bersebe
vene
reskrim
aus
didis
##luktu
diharamkan
sejujur
##skan
indomar
ditiru
sorong
usman
meraba
pembelaan
fauzi
esta
fauna
##daka
tersinggung
memintanya
terpuji
meleleh
soul
diawal
##tad
mensy
##sunya
komplain
febri
amd
##part
president
imf
##uch
pengalihan
pergunakan
army
telor
##hua
pupr
kamp
elektronika
kampar
bontang
##wung
grinding
age
cnn
duku
##bsidi
radika
##isse
tipsnya
mendiagnosis
memutus
kolonel
berpenampilan
kejuruan
ep
apart
mancing
terkoneksi
convention
mary
north
interpretasi
pep
tengku
menindaklanjuti
vcd
perundingan
tiri
napi
##gulung
afi
clan
fadli
tony
keses
perseku
yasin
kesimpulannya
bj
bertobat
pemko
linda
raffi
costu
disertakan
ummi
dibesarkan
trafik
izinkan
sanche
##sobo
menyeimbangkan
##mpi
##bianto
ngin
berpasangan
pacitan
memulainya
gengsi
##bers
anne
pengidap
living
##oka
berbatasan
must
membelah
kelebihannya
difungsikan
release
difa
teknikal
ditutupi
##tasikan
bincang
berinovasi
##samping
##ensinya
yunus
##cep
cher
lib
ditelan
##midasi
##aah
menggendong
wawan
robek
kinc
ngomongin
msi
firda
command
wassalam
##oroti
hud
roboh
pamit
bersentuhan
##63
flex
nk
mintalah
##banon
##ries
libr
turn
programmer
zone
##mann
finger
college
shanghai
pecan
sebar
##ukupan
button
kebagian
barel
##ruh
##odorkan
masjidil
diver
radikalisme
##pastian
pahanya
perump
tetangganya
الله
dumai
menopause
tjah
ipk
bagan
appli
tangisan
century
risk
##warsa
memberlakukan
racikan
zuh
dinihari
fk
picture
malaria
meluruskan
mengenalnya
most
spasi
ambulan
layu
##castle
##eno
duet
ulasannya
menghang
mozilla
didaftar
seluk
ln
480
ost
kecakapan
disengaja
##sky
wallahu
merangkak
fatimah
##inggungan
##gek
kalanya
terowongan
pedro
hazard
designer
##screen
sosia
menggantinya
esensi
dirumuskan
lemot
followers
qad
##vement
1981
pembantaian
today
tercermin
masukin
##fier
sepan
pengucapan
hamid
##yes
terinstal
kejantanan
pengolah
##panan
##lind
kerutan
suarez
saring
influen
perempu
pencabutan
pengoperasian
podium
vaginaku
##isir
termotivasi
kemoterapi
##rd
opd
##mulasikan
menyin
championship
##loskan
dikarunia
ases
diidentifikasi
pemberhentian
bener2
bear
dusta
mengobatinya
kangkung
arabi
sheet
##lumi
kominfo
tengko
snorkeling
diis
supra
pesen
##watch
rotasi
kolombia
dapodik
##jarannya
moderator
polemik
##utrisi
sepulang
etis
reklamasi
lebay
menjamur
##hony
diklik
siah
bagusnya
##ontak
konstitu
mahfud
bg
##head
##rent
find
ub
kadis
shio
joy
tsa
##rulina
dinobatkan
reserved
menerjemahkan
dadaku
jami
touring
natrium
sas
irian
syawal
berdakwah
oya
haw
beluk
##votes
kesalah
bercita
menendang
berebut
##jus
quo
lumajang
diteri
ahlul
kesesatan
tentulah
lukas
heri
gendut
embel
datangi
rh
b2
##vitalisasi
rubah
pertentangan
kaligrafi
raw
bebatuan
pantau
osis
hti
lintah
114
lincah
limited
migran
##jatuhan
running
mainstream
pencak
belang
##lahian
motorik
penumpukan
kehendaki
##lirkan
spp
teguran
retro
etnik
##lase
punggungnya
penyangga
brutal
##vian
mendunia
##pect
kecok
##zine
rho
##juta
##uuu
priva
raut
##ulat
insin
asalan
dilema
cran
apri
cluster
santunan
karton
##tific
ludes
twin
borus
progres
penasihat
antre
vit
mazda
munich
setoran
kapa
association
anakmu
baper
sesegera
marse
artian
menurunnya
alamnya
dd
moda
bersedekah
kane
##fra
penahanan
menyamai
ketidakpastian
indomaret
ther
sukoharjo
##lalkan
menanggulangi
membungkus
temen2
gadang
ketek
wonosobo
melembabkan
menerobos
strategy
##ruit
wajan
petik
transport
keriting
sekuri
iain
konsol
baro
diulang
ust
##ramil
encer
dipering
newcastle
mukjizat
berjiwa
sayyid
memasok
##lmu
memberatkan
sumbu
patogen
stakeholder
isikan
salak
tipi
mengaji
tengkorak
##falkan
kusen
##cre
transmigrasi
dagingnya
cn
syahid
menjen
friends
koi
harmoni
leaders
melek
brawijaya
kerah
geb
kalam
tamunya
malamnya
kepresiden
una
##densi
wood
terpaku
defen
bolehkah
akarnya
menghimpun
kutai
##lasinya
split
nazar
##lantas
merauke
antv
alhi
kecanggihan
letih
mengetuk
nong
menyuarakan
tekno
perpres
berkorban
##tanggal
divi
tasawuf
##cto
mekanis
##dalan
walet
subianto
pankreas
##wide
berair
penjam
dikatakannya
aris
reload
aston
penurun
common
perabot
mengupayakan
mempererat
berangsur
bahasanya
marvel
poligami
##yaring
bhak
iqbal
ghazali
cimb
kebobolan
bergoyang
pete
privacy
four
stimulus
wh
condong
small
tidakkah
mengimbangi
ditukar
dinar
seutuhnya
berhadiah
majah
tercapainya
##gani
membasmi
memuliakan
##rangkat
fasilit
##87
country
##tualang
andrea
##vet
detok
daha
fuji
##jauan
##bble
nich
draft
##ulunya
prilaku
conference
sushi
dilontarkan
berurutan
gif
scrub
yuan
insinyur
ral
diutus
termak
xvi
praja
dihabiskan
##tish
swadaya
kawannya
qual
##sarannya
faktur
tergesa
penolong
bpp
migrasi
##wir
experi
suro
yor
diagnosa
eur
dimodifikasi
mendahului
chicken
hidroponik
sudar
murai
push
fren
sweater
foredi
perhari
##kamkan
diingatkan
##lup
digabungkan
ext
##tangkis
bertemakan
keberagaman
##jarnya
merosot
h2
rd
gpu
menayangkan
mengutuk
diusahakan
##lenggu
krimina
##wl
cadang
trotoar
bentar
hening
##tasy
hwa
giveaway
##ematan
federasi
youth
propaganda
nagari
cargo
hob
berciuman
jones
bc
komisioner
kasian
djarot
bugis
pemandian
industrial
membujuk
hentinya
prambanan
beradu
livechat
bingo
ghaib
trims
perusahaannya
delivery
##kahi
##track
terta
cl
##dili
maq
najis
xy
cobain
samuel
thai
nut
spur
penyempurnaan
seda
##malan
menggarap
mol
string
dibuatkan
menonjolkan
perumpamaan
bersin
scene
deadline
antisep
graphi
hab
trafford
hydro
fasilitator
sip
bersinergi
##hea
menebar
hb
abc
sangkar
cong
ngang
pemanis
##ovic
syurga
naluri
##urnian
nigeria
sederet
penata
hangus
dipaksakan
##yeong
hernia
proyeksi
dirubah
domisili
pemutar
gambut
##cine
##tical
##pesona
figh
##samakan
ahm
periklanan
rome
membungkuk
didistribusikan
bd
delta
salin
teratasi
birth
##didayakan
evan
pengungkapan
keuntungannya
ketidaknya
arisan
takbir
acid
diakhir
bermasyarakat
##beli
##lank
reds
detektif
kewajibannya
peruntungan
sharp
simpul
mx
##ramida
kesucian
rendang
##made
##kimia
disentuh
berisik
a3
dipenjara
phili
##pori
supervisor
urus
bergenre
berkategori
##ero
cakep
primad
puing
lara
koordinat
##mem
##harapan
andri
heru
sekitaran
predator
meminimalkan
ian
fiskal
habisan
##teroid
diary
eliza
datsun
ajal
sanchez
oranye
organizer
##lakangi
samo
dashboard
persekutuan
##61
firmware
ford
disy
vario
penggan
kecoklatan
seledri
1979
ditransfer
##sanan
sejujurnya
##timate
diterimanya
selesei
takde
menghias
pemanas
paya
sodara
drainase
aun
sukacita
##islam
quraisy
kariernya
lentur
diamond
##roni
photogra
##ago
shopee
pengampunan
dico
##singkan
menengok
timbal
bijian
##sport
kurniawan
klu
##lanya
##tualisasi
backpacker
devisa
kiner
kd
murka
pembekuan
bersertifikat
halte
##onkan
720p
walk
darussalam
memberdayakan
perumusan
diten
advokat
##bap
berdebat
##ism
kekos
kry
melitus
##tho
kemayoran
lag
nurdin
alhijaz
##hiran
ampat
kematiannya
berdan
edward
mengagumi
costa
meluap
ponselnya
rubrik
marat
fed
2gb
spirulina
kegeli
appa
tpa
##drome
yag
bersinggungan
perempuannya
mengemban
spy
supar
kepresidenan
pagelaran
menteng
merenung
resistance
futures
persipura
##fast
merintis
selempang
keaslian
##wave
disebarkan
perampok
cerdik
##dadi
##tabilan
perma
##garuk
kekosongan
dede
##yama
solution
yakini
memuncak
mengisyaratkan
analo
terpanjang
scanner
drumband
tikar
##phon
meniup
seger
kiprah
##inseng
##liannya
##proof
##politik
jepit
perek
rules
omongan
widya
107
sumar
memangnya
valentino
##tamin
cart
metho
arahkan
almond
danny
smo
arahnya
650
hospital
pawai
borussia
embri
publisher
optimistis
##onoid
wish
##piloma
baunya
images
##film
106
pencetak
haj
andromax
coretan
presenter
tetek
##hoi
myungsoo
##dianya
penir
playstore
##mpungan
##saurus
cintaku
rr
astaga
bull
tajuk
biasakan
babe
menganggu
pigmen
##player
##sapan
playstation
1978
##sionis
piramida
hambanya
slow
neon
idm
##nisasi
##teker
membebani
210
bulog
kaldu
ketidakm
women
true
mean
acc
pemotretan
##protan
siri
travelo
serbaguna
melambung
lex
dikti
dipukul
##fish
tabir
kebidanan
menantikan
alumunium
amankan
##ritis
##snet
laras
purwo
memonitor
militan
membangunkan
huse
perkampungan
##waspada
ahlinya
##trasi
diusir
##pari
nangka
sahih
kerinci
mataharimall
library
pemap
siber
melesat
layan
detox
dry
##dahulunya
sumbang
showroom
fel
motherboard
sirup
economi
yn
moms
256
tumpeng
##bandung
##perda
inipun
statement
jengkel
##82
indicator
##365
kbbi
mimpinya
situlah
kompol
mmg
menempelkan
##ines
challenge
pemalang
taka
##galek
kegelisahan
memperkecil
jay
riang
##mor
terstruktur
antusiasme
kesah
sidney
burn
##lajarinya
bersar
penggabungan
##currency
##surat
##potan
dipersembahkan
terkontrol
berbakti
mendon
##ilia
wasiat
kare
rekanan
##gesti
##lampung
infini
djoko
terpesona
wir
fakir
##rey
##hurt
##enis
penguat
kemiripan
blokir
trak
##ardo
##wall
panasonic
manisnya
presti
mengunyah
bie
##orangan
copas
kromo
memahaminya
cere
pesim
mendistribusikan
apoteker
khot
terarah
kulakukan
pesepakbola
juragan
hadapannya
parenting
##organisir
##83
##opo
santapan
kemendikbud
trial
##lentang
##sula
kegemaran
##cehkan
monggo
tus
jiyeon
##coss
numpang
testoster
asem
##esco
sheila
mengarungi
sid
##liran
usg
pemaparan
spesifikasinya
##bekan
hill
##bla
preferensi
marx
dns
gokil
seohyun
##petin
##litian
sepuasnya
kencana
qualcomm
layarnya
wahabi
fior
pasutri
audisi
##piter
memeknya
##teris
trio
corel
kapitalis
celan
perusahan
##litik
kasta
ngawi
skype
##mei
parahnya
prasangka
karakternya
lgb
mengartikan
purworejo
mpv
pgri
grid
wahy
koni
##install
korelasi
##tron
heels
##selon
penghematan
shahabat
aktiva
keislaman
##letin
techni
berikanlah
lempar
camping
##kor
kepekaan
ou
memal
validasi
##owo
vespa
nil
oak
##wek
sagu
yoghurt
wisnu
fikiran
parade
kopling
raj
penampungan
rice
effen
##indahannya
berteknologi
##opy
rancang
##ned
primadona
termaktub
pelayanannya
ginseng
ukhu
rahasi
lie
##jiri
sigap
evercoss
menghal
##falan
menganggapnya
##dusta
dikandung
difor
##ies
melemahkan
labuhan
krem
pekerti
kerikil
disekolah
##ranto
merugi
membusuk
fernan
germain
warganet
ferr
karuan
diberbagai
##vestasikan
tumblr
victor
husein
kinerjanya
sneakers
banteng
0852
##dise
##rangkatkan
##operatif
isya
kesung
menyisihkan
pelik
valas
ketulusan
mapolres
ena
keemasan
perbukitan
kristiani
##bow
digerakkan
##kwk
dama
infus
kupi
menanjak
zakar
lekat
penghinaan
##49
##losan
artistik
alan
keakuratan
mengutarakan
bhakti
penyumbatan
##ungkas
rita
zalim
boots
estate
##timeter
hampa
tapan
##qur
menantu
bajak
kestabilan
derby
50rb
death
berlandaskan
mane
vr
tebakan
membidik
bukittinggi
##mart
jinak
rif
politis
ditahun
pdt
dibolehkan
diawasi
tekhn
fransis
rimba
minumlah
selai
##batik
deterjen
akuntabilitas
merespons
kasu
tinju
lau
mengupdate
wel
clip
eman
##esa
##lamin
begadang
##enas
msh
suguhan
merchant
bukaan
kakiku
xa
bertempur
comp
bijih
##gurkan
hop
pear
mengkilap
think
##porosis
shoes
empati
steam
tikungan
luwu
philip
##letter
alexander
mempercayakan
indonesi
anar
mencuat
korek
thamrin
mensti
glam
termin
ngurah
favorite
##ae
wide
karma
costumer
##sary
kesungguhan
compo
##arawan
likui
testis
spesialisasi
##ffle
visit
firdaus
western
lawang
diving
jpg
truck
dikelompok
berbintang
berkilau
##krip
paginya
gag
kandungnya
gumpa
nawawi
then
seenaknya
pembentuk
genangan
allahu
teoritis
merdu
pipis
menyangkal
uc
dimakamkan
pasa
protected
pecandu
sontak
papilloma
penisi
##suke
pesu
##tandar
flus
defini
pancing
teranyar
##pihan
mendasari
trenggalek
kesalahannya
experience
diker
mempublikasikan
jemari
ngurus
hunting
##anggung
tunda
##ille
jav
sukarno
rebo
kelembutan
alternative
peralihan
pemenangnya
hiro
gulungan
replika
diaktifkan
pamungkas
menyadarkan
nus
bungan
taemin
fiorentina
##riskan
##mania
ons
rez
modu
kuatnya
peluk
smi
dialihkan
##72
francis
##pampang
sui
lgbt
delima
mengiringi
##uanya
peramban
mika
co2
blazer
spurs
fs
##enan
ditaruh
##struk
disembunyikan
message
terendam
build
gilirannya
mendeng
bersamamu
##width
norwe
ketela
tix
holiday
memompa
amster
disang
##kupi
pencah
mengeksplorasi
taylor
berkarir
##riptif
wallet
stimulasi
##vision
cleaning
paskah
adrenalin
menyerbu
onani
vik
thin
mask
##bincangkan
rena
menonaktifkan
melampirkan
gah
vektor
disela
salafi
berkut
sunat
abstra
mengoleskan
ngerja
loyal
chev
##phia
pleno
dimasukan
membekali
##usitis
##imin
wid
remedi
##haka
ibumu
whit
##turahim
dicontoh
muhar
perontok
tematik
setrika
ngumpu
##tie
##tone
shell
npwp
amsterdam
##night
##warisi
tubuhmu
##saya
jackson
##188
##imbangi
thu
umbi
monopoli
mengajaknya
mengku
mamah
xen
mengungsi
briga
manipulasi
terselip
p3
menyasar
dagu
memejamkan
platinum
production
gantinya
##feral
kepunyaan
mengocok
mengucap
##raan
##2018
##fleksi
digolongkan
##wad
##cr
untk
metropolitan
dipertemukan
sorot
torsi
mengomentari
terpampang
solok
hiday
taqwa
osteoporosis
homepage
didaftarkan
##rise
submit
orderan
narsis
perkelahian
##xa
pengarahan
kuper
coret
kuas
ditebak
##plan
gadai
campak
steril
kerahasia
thera
pansus
warning
##arkannya
feat
merantau
kebayang
fantasy
1975
moskow
xd
membeberkan
pulo
yach
piknik
##wangan
menghaluskan
##gusan
regulator
kombes
konsel
cende
rank
visitor
pemerataan
ktsp
prag
menko
eselon
##cari
menah
emer
beranggo
menebus
natuna
eunhyuk
penjelajah
rajawali
menjahit
tergan
kegemukan
wd
karyawannya
minder
penisilin
pernak
adrian
##drungi
tent
sebatang
paparkan
fira
##desh
##ume
nikita
keputusannya
menyoroti
representasi
yesung
dilapangan
galak
dalang
oat
cleane
menatapnya
berim
menyeberang
julia
##bondo
siksaan
pvc
agraria
bertaqwa
sesuatunya
perseorangan
##dingi
##piaskan
them
##craft
perampokan
##batu
swansea
duk
superior
##imer
terbitan
dech
remix
disekitarnya
mulu
melintang
gemetar
dikaruniai
membutuhkannya
dikelompokkan
##wawancarai
benarnya
endapan
kontan
termuat
indotrading
tersedianya
##uld
sulap
terd
##lasifikasikan
vib
bangla
sunah
merekalah
battery
##thone
select
alja
##92
##lipop
colo
pendidikannya
sinusitis
pungli
magetan
zulki
bean
phil
maroko
penyuka
menipis
menyembelih
tangkis
cleaner
uskup
gad
##etri
##tubuh
##drol
berden
berlem
kantoran
giri
##arahi
dikan
jobs
ultimate
ketidaknyamanan
task
mainnya
antiseptik
fare
terselesaikan
advokasi
pinus
aud
krip
telaah
kuping
allian
balutan
aduq
gesa
mencerdaskan
##tingen
simbolis
ditanamkan
##lahatan
vista
ikhtiar
melontarkan
lidahku
menegangkan
bpn
##dahulukan
debi
roller
##bunya
##bui
menjulang
percikan
pemeluk
muta
menyelimuti
wine
gowa
karenakan
##rumus
##toral
kembalinya
buntut
kut
menaikan
serbi
heheh
ketempat
keane
##latul
##pg
##letak
datuk
course
##bc
piranti
pariaman
pikiranku
kolo
novi
chief
indowisata
dipamerkan
##tolong
hanura
memanas
newsletter
terbaring
bersosialisasi
##yd
confi
dpc
##hun
merogoh
##aking
lunas
hika
ketidakse
stoke
berw
reksadana
diup
m3
kooperatif
syaha
ahlus
##togel
berkerja
hayo
memangkas
hilal
##bup
##stin
berilmu
anting
sitem
##oskopi
majal
pelukis
##read
gita
0823
##fing
akselerasi
aktivitasnya
tuba
utsman
berselancar
informatif
dakwaan
pudar
sj
dikontrol
beral
pesiar
ludah
rangkum
cili
##42
anatomi
berseru
##krik
##gumu
##keras
tanahnya
##alsuan
memanggilnya
jera
brunei
terpikir
hold
##daptasi
pemenangan
tangkapan
multifungsi
##rick
neisse
##world
##fet
dibebankan
kocek
##intage
orbit
meriam
4000
brankas
bandwidth
activ
kicau
##embuskan
##kain
otonom
menitik
mencontohkan
tapanuli
rahma
mtq
berwajah
memandu
absolut
bintaro
uz
binti
perdan
moe
interval
pamekasan
clash
menyaring
##menya
temp
imunitas
gamelan
terte
ocean
summer
flip
axi
kentut
##rash
##injauan
belikan
eomma
marina
dhu
situbondo
##vator
menyalin
prostitusi
kompatibel
perduli
khotbah
ketum
##cum
diunggulkan
dzat
batman
tetesan
analogi
dev
donggala
##lamp
mendeskripsikan
##uap
dapatkah
berbondong
buas
jahili
##nance
alhamdulilah
##ternak
gumpalan
appro
dilihatnya
colum
diancam
fosfor
kemudi
perio
dokumenter
berakar
agensi
##beng
##ombolan
##laps
menolaknya
tone
eti
1966
keluargaku
asci
a7
stage
laen
risau
korsel
##une
banjarnegara
ronde
turnover
##fx
musyrik
membolehkan
luncurkan
milikmu
arabia
neisseria
rosa
kemahasiswa
hok
metrotv
vixion
disinggung
gugus
##atanya
obor
##lindo
sesudahnya
koment
ls
##oooo
pertanahan
bubar
dinamai
tabanan
tercemar
ihsan
##rinsi
dispen
punk
sergio
unbk
ll
gome
lemahnya
##oboro
kekun
peninjauan
devil
planning
mea
deddy
kompos
zikir
kartika
dapil
cook
slots
yeah
rendam
##ualisasi
omset
akuarium
eksploitasi
dikenai
mmm
klitoris
potter
nekrosis
dengerin
consul
robo
pemuka
amazing
pertumbuhannya
parit
##qiu
##fem
handicap
##bran
dinanti
penasehat
fortune
sg
resepsionis
eyang
rencanakan
kapuas
perbulan
powerbank
##gita
keken
deskriptif
norwegia
terhadapnya
meresmikan
bersungguh
bayarkan
##lahap
##sura
##zhou
menjaganya
mudah2an
##bru
##silah
dipaparkan
pencal
dipo
##buruk
##wajiban
pemadaman
##pei
kamarku
telinganya
kakao
gamers
##estay
murahnya
plasenta
taxi
selangkah
rc
jupiter
rika
misa
johns
ketidaka
migra
mengguncang
puzzle
tarikan
##mata
ensik
batavia
##cro
##deglang
lantang
evo
terfokus
##orek
bertiup
diposkan
handle
siakan
memerhatikan
mengimplementasikan
##rensi
##cate
##pcs
prase
membukukan
mengalirkan
bros
sofyan
koplo
arsene
##tant
##sebut
fluktu
menggai
lina
islamiyah
buyer
ucapannya
dw
tenar
terhalang
pocket
noah
dent
pendorong
rudy
didiskon
dianut
lembur
penugasan
##haf
338a
##yanya
mengecam
ott
diimbangi
malioboro
pure
ngambil
amiin
bersarang
maga
wala
tahta
juanda
govern
berlendir
##tifi
kalahkan
beranggotakan
manggarai
haq
haluskan
jimat
##ala
perintis
cuba
##lief
zak
sama2
wednes
lirih
governance
akak
vintage
32gb
##eae
gigih
brain
letter
motorola
kerumunan
zte
rayakan
nazi
rei
##qyah
kemahasiswaan
berbo
lelucon
komputasi
pendahulunya
1967
juan
graf
invasi
afc
##gence
##losis
terbarukan
[...]
